node {
  name: "global_step/Initializer/zeros"
  op: "Const"
  attr {
    key: "_class"
    value {
      list {
        s: "loc:@global_step"
      }
    }
  }
  attr {
    key: "_output_shapes"
    value {
      list {
        shape {
        }
      }
    }
  }
  attr {
    key: "dtype"
    value {
      type: DT_INT64
    }
  }
  attr {
    key: "value"
    value {
      tensor {
        dtype: DT_INT64
        tensor_shape {
        }
        int64_val: 0
      }
    }
  }
}
node {
  name: "global_step"
  op: "VariableV2"
  attr {
    key: "_class"
    value {
      list {
        s: "loc:@global_step"
      }
    }
  }
  attr {
    key: "_output_shapes"
    value {
      list {
        shape {
        }
      }
    }
  }
  attr {
    key: "container"
    value {
      s: ""
    }
  }
  attr {
    key: "dtype"
    value {
      type: DT_INT64
    }
  }
  attr {
    key: "shape"
    value {
      shape {
      }
    }
  }
  attr {
    key: "shared_name"
    value {
      s: ""
    }
  }
}
node {
  name: "global_step/Assign"
  op: "Assign"
  input: "global_step"
  input: "global_step/Initializer/zeros"
  attr {
    key: "T"
    value {
      type: DT_INT64
    }
  }
  attr {
    key: "_class"
    value {
      list {
        s: "loc:@global_step"
      }
    }
  }
  attr {
    key: "_output_shapes"
    value {
      list {
        shape {
        }
      }
    }
  }
  attr {
    key: "use_locking"
    value {
      b: true
    }
  }
  attr {
    key: "validate_shape"
    value {
      b: true
    }
  }
}
node {
  name: "global_step/read"
  op: "Identity"
  input: "global_step"
  attr {
    key: "T"
    value {
      type: DT_INT64
    }
  }
  attr {
    key: "_class"
    value {
      list {
        s: "loc:@global_step"
      }
    }
  }
  attr {
    key: "_output_shapes"
    value {
      list {
        shape {
        }
      }
    }
  }
}
node {
  name: "global_step/IsVariableInitialized"
  op: "IsVariableInitialized"
  input: "global_step"
  attr {
    key: "_class"
    value {
      list {
        s: "loc:@global_step"
      }
    }
  }
  attr {
    key: "_output_shapes"
    value {
      list {
        shape {
        }
      }
    }
  }
  attr {
    key: "dtype"
    value {
      type: DT_INT64
    }
  }
}
node {
  name: "global_step/cond/Switch"
  op: "Switch"
  input: "global_step/IsVariableInitialized"
  input: "global_step/IsVariableInitialized"
  attr {
    key: "T"
    value {
      type: DT_BOOL
    }
  }
  attr {
    key: "_output_shapes"
    value {
      list {
        shape {
        }
        shape {
        }
      }
    }
  }
}
node {
  name: "global_step/cond/switch_t"
  op: "Identity"
  input: "global_step/cond/Switch:1"
  attr {
    key: "T"
    value {
      type: DT_BOOL
    }
  }
  attr {
    key: "_output_shapes"
    value {
      list {
        shape {
        }
      }
    }
  }
}
node {
  name: "global_step/cond/switch_f"
  op: "Identity"
  input: "global_step/cond/Switch"
  attr {
    key: "T"
    value {
      type: DT_BOOL
    }
  }
  attr {
    key: "_output_shapes"
    value {
      list {
        shape {
        }
      }
    }
  }
}
node {
  name: "global_step/cond/pred_id"
  op: "Identity"
  input: "global_step/IsVariableInitialized"
  attr {
    key: "T"
    value {
      type: DT_BOOL
    }
  }
  attr {
    key: "_output_shapes"
    value {
      list {
        shape {
        }
      }
    }
  }
}
node {
  name: "global_step/cond/read"
  op: "Identity"
  input: "global_step/cond/read/Switch:1"
  attr {
    key: "T"
    value {
      type: DT_INT64
    }
  }
  attr {
    key: "_output_shapes"
    value {
      list {
        shape {
        }
      }
    }
  }
}
node {
  name: "global_step/cond/read/Switch"
  op: "RefSwitch"
  input: "global_step"
  input: "global_step/cond/pred_id"
  attr {
    key: "T"
    value {
      type: DT_INT64
    }
  }
  attr {
    key: "_class"
    value {
      list {
        s: "loc:@global_step"
      }
    }
  }
  attr {
    key: "_output_shapes"
    value {
      list {
        shape {
        }
        shape {
        }
      }
    }
  }
}
node {
  name: "global_step/cond/Switch_1"
  op: "Switch"
  input: "global_step/Initializer/zeros"
  input: "global_step/cond/pred_id"
  attr {
    key: "T"
    value {
      type: DT_INT64
    }
  }
  attr {
    key: "_class"
    value {
      list {
        s: "loc:@global_step"
      }
    }
  }
  attr {
    key: "_output_shapes"
    value {
      list {
        shape {
        }
        shape {
        }
      }
    }
  }
}
node {
  name: "global_step/cond/Merge"
  op: "Merge"
  input: "global_step/cond/Switch_1"
  input: "global_step/cond/read"
  attr {
    key: "N"
    value {
      i: 2
    }
  }
  attr {
    key: "T"
    value {
      type: DT_INT64
    }
  }
  attr {
    key: "_output_shapes"
    value {
      list {
        shape {
        }
        shape {
        }
      }
    }
  }
}
node {
  name: "global_step/add/y"
  op: "Const"
  attr {
    key: "_output_shapes"
    value {
      list {
        shape {
        }
      }
    }
  }
  attr {
    key: "dtype"
    value {
      type: DT_INT64
    }
  }
  attr {
    key: "value"
    value {
      tensor {
        dtype: DT_INT64
        tensor_shape {
        }
        int64_val: 0
      }
    }
  }
}
node {
  name: "global_step/add"
  op: "AddV2"
  input: "global_step/cond/Merge"
  input: "global_step/add/y"
  attr {
    key: "T"
    value {
      type: DT_INT64
    }
  }
  attr {
    key: "_output_shapes"
    value {
      list {
        shape {
        }
      }
    }
  }
}
node {
  name: "Const"
  op: "Const"
  device: "/device:CPU:0"
  attr {
    key: "_output_shapes"
    value {
      list {
        shape {
          dim {
            size: 10000
          }
        }
      }
    }
  }
  attr {
    key: "dtype"
    value {
      type: DT_DOUBLE
    }
  }
  attr {
    key: "value"
    value {
      tensor {
        dtype: DT_DOUBLE
        tensor_shape {
          dim {
            size: 10000
          }
        }
        tensor_content: "n\325\243\254\227@R@d\333!Ss\247Q@\370)\t\034\246\257P@%\006\227\217\306 R@\037)$\017\250,Q@\342.\354\262\241\311R@\001\324\372\n\026-Q@\377\003?1opR@\3355\032+c\356Q@+\313\257\205\210\322S@o\230M*c9S@\307\273\242n7KR@\362a\336;][P@\360\004B\254\032JS@e\203\224\027\257\236R@\204\257K\301}\007Q@\350\267xo\227{P@M\005\310\341\350\020P@\352\210\265\024=\201P@\265w\350\031\226\345Q@\362R\205\004G\232Q@\026bM\333/\025P@\'\326\313\357\020MO@\344\233\314\252\022>R@\177gp[\373\260Q@\377\366\270s\243\232R@~\277b\001#\266Q@\377\377sQY\322O@\252i\300J\302,Q@>d\301zFHR@\202\351\3140p|S@\365\244\225\334\030eR@\333\364\363\3140nS@\n\211\371&\216\035P@\300*\336{?\016Q@&\261\203\260\352FO@\253\313\276+d\344Q@\342\374&(*\'R@F\262&*\326\224Q@.;\216\0304\273Q@\230\"h`}\357P@\327W7\244\213\037T@\324U\227\014\310\242O@\325\242\376\032\266\002Q@~g\242\215jfT@\232aI\004@\252P@\020\016\030\334\341WP@\\9n\032(\262P@\253\177\336\346\"rQ@\332V\026l\021\222R@\352_\007}-AR@\203\275\215\323lsQ@G\007B*\261JP@zC\210\314\273\274T@\r\304\271(\326\311P@\016\342\212\264U\236Q@b\341\332\261\205pP@\310\313A\260\302sP@\013\356\345\222\256/Q@\n\231\375\213%\323Q@\321\327\027N7\337P@\320V\3162\371\231N@3&\254\325\255\324P@\003*L\022\301\312L@\005\017\273aO_Q@\'Sl\013\336@S@N\'vw\2079P@\216\314Q\02593R@AI>\244\320lR@\200\333\275_\365\277O@t(uq\rIQ@\\7\364\002SsR@\237\373-QV\350P@ \305\273szwQ@\361<\210\034\265\225Q@g\201_\215v\016P@@\362\275\227\302\242R@\320\206\342E\243-R@\377\350\242\241\311-S@\3148A\211\272\001S@\221\377\204\350U]Q@\3664\335\233\353AS@]\215\r#\273?S@\326\314\305[C%R@ok\213\232)\177Q@\346\302\267\3344\273P@v\271\017a\214\300R@\340(A\230\254\022S@P\211\354\341:AS@\213B\307\372Y\212P@\0166n\276\334UP@7\241\357\027\223QS@SF\315\331C\\R@J\310\204\277TDN@\274\004\244\223\251JS@:\026\002\t\037:Q@\341\372Z?\177\004R@\232DdM\3723R@<R\320\257e\213P@k\352#tM\257Q@(\226U&S\001R@\rY\323)VuQ@\362\211\361\316Z\263R@\007\014\325`\305]R@d\242F\340\273WP@m\n1\023\271\256P@\3024n\354\024\352P@j\207C\024IvP@\231n;\014\000\200R@ug\276\312\007\027R@\234\270\212\rw\263Q@\345\276\231\326\320\246R@\000\256\321\222\023\351Q@\366\2477f:\300Q@\2438AE#CR@0\270\232,\243\311Q@\025l\335\236\024`Q@\026\213\330<\330\343N@$\312\010O1\020Q@8\252ko= R@\\\214T\001\356\371P@\361V\377\331\225\233R@\254H\227\013\024\301M@\354\\\256\322\266\247O@\361\303\363\255\177-P@*\252\3224@yQ@\356Y9M%\351Q@\211\213\310\271$\230R@\234-\305TwyQ@\031\006\265\213\353WP@\365\227\212\302\307\363P@v\223\337C\256JP@\206S\312\014qQO@\266\266\371L\033\322Q@\277\32754?\007R@\360\271\213\263\373\035Q@W\020\037\032\331(S@{d\363P\375\203Q@\306?u\335#WR@YN\007\222E\313Q@\346N\347C\334WQ@\032\353x\035\"?Q@\312\254\246M\214BP@7\306\265\351\357\256P@M\177@\002\265\361Q@=\243V]\274wP@R\217k\034woQ@\275\276\246\3639#R@\3471eS\312uS@B\265\026^\034RP@\306\2710\203\220uS@\206\222\253\213\0131R@y\356\331\034\002\237Q@\300\225\252\213=\227P@\215S\027\263\332\355P@\300\201B-\273SQ@\354\330{\300\372\341Q@\346\n\036\255\263\206P@\224ZQG\004VQ@\322\013o\217\366\033S@\331\026i\333\326\364P@\261\364SC\314\035P@\255\261(\"d[N@\242\350\356L+\314P@-\267$?\210\214R@\324\336\310\243\240\323Q@\252(\344\323n\237P@\006\365\177\316Y;Q@`\2141\344>\366R@\\T1L\274\376K@xG%\233\227WP@H\210\3304\366PS@\220]m\334[\320Q@\233R8)FdQ@\007X\314\371\235(R@\243\267\344\026+pT@\225aJ\034\335zQ@\231\r\347g\204@P@\332\355\254\r\215lS@\326\267\250RD\302R@F\257\003\331\2252Q@\351\210k\036?\313Q@\")\274\263\353\212R@\204V\233\237\320RQ@\311\031\364&:\235R@\205\270\0309}XO@\304\226aJb\365N@\271\375\276\330\364\227R@\226\204\365\255\244jP@^\2179*:\327R@\304\253k\271K\201Q@r\225+P)\300P@\264\275\203\\\373\264R@\260\355\252\214\335\356O@\277\252\323\371L\311N@\343\002.\354\233&S@\217\272\223\356\267\002R@\254\003\373Fj\211Q@~6\300\331\374uR@/\243N\355r\370R@I\022p)\367\243Q@\366%\245D\357\nP@\247c\335\r\373OS@\022\030(YX\366R@\277\311\036\004\335\tR@\252\262O\022\n\340P@`Z\332\330[\236P@qF\313\350\n\322O@\316Hh\306y:Q@\316\301\300\033\016HP@`\"\203\270^\032R@qh\022\2023=R@\260\307\324\274$\035R@\323\"L\177l\265O@\034\373g\'\007\245R@\250\243S\222\275=R@\357j\034G\217\273Q@~\002\345:\204uT@\356\267\004c%`R@\246\r\375\237~\257Q@G\207\370\005\275\255Q@\336\t\231\242|\250P@\254\330A\036%\340P@\254\341\'-Q\264R@\302A|\233msS@\302Yw\317mrQ@\207\317\307\344\314SP@\232u\246\353\347\271O@\210\326f\330\365*Q@]U=,\225\326Q@p\356\243\272q\211R@\306\007\017\235\031kS@\344,\365_\005\242P@<9\273\254\233\247Q@\375d\r2\027\323R@\270X\311\235E\337Q@&j\343\276UyP@\351T\320x\3438Q@\364\222yU\206\220R@\214\260b%\307\327Q@R}<Q\032\327P@<\302\302\326\206@R@F\224\250\020\001\020R@ZgF\217\037\233R@\376\353-(\341\360P@\307\214zt\242\202R@\0206\"nW*Q@+{i\034\275\221O@\026G\234\205\352eQ@z\010\240\262_\034Q@1\312\343,\274CQ@x\r\341H.\021S@YZ\241k&\002M@\254\244#\273\376kT@\025\0048\320\210IR@s\305\361\231d\336S@\030\325\224\253\215\364R@e<?/\0005R@\027\275B\207\277\"Q@;\24164\013NP@\217\245e\307\\\321R@\340\265\211\016\347\304Q@\204\376\023{P\177R@\256(\r\033#\264O@+3\367\253\311\033R@\202\200_ta\010Q@5O\361u\331 R@\213\214\336\317\375oQ@\277\327h\341LeR@\251\336b\004\000\347R@\366p\n\255\306\213T@\204b\032_\247eR@\306!\035\337\214\223P@:\364f\027\310\033P@\3359\315-\037&R@\010#I  \344Q@w\320!\236\320\312R@\342\0215\363\242=P@Cg\221\037ZvR@\265Qk=\325\014Q@\325\034|\177\366IQ@zT\352bY\007Q@\2655Q\211_\231R@\341;\310\256\310\205R@w\323\"})\354R@17\340_:\210P@;\256:]\014\"P@<\252\226\016\342\340P@\374\365\337\314\2160R@i\260\026\331\213AR@\310\007\345\326,cS@\007{Y\303\343\030O@\367kx\370\007\356M@\314\331\352ik)R@V\0367\310\205\276P@_\215\317\025d\202P@N\326\337\263\'\244M@\216\351B<\005\317Q@\261\270\226\177}\313M@\220Dl\023 \350O@\242\227\341\331\r\007Q@\364I\223F\362!Q@\300\2456K\203vO@T\350+\370\341SP@\017\353\364\334\025\327Q@\366\035\240gw\315Q@\231\200j\355)\205S@\003z\262bb\037Q@\306\010E\2740\361S@\365u\306\360\377\nR@\004\237\363\026\221\230M@\343\247F\347\301\252Q@\030\245Mo\276LQ@\365?\333\020k/S@o:\013;y\002Q@\036c\026\301s\037R@\334.\027\271gwQ@b\017\177\316x\366Q@\265\313\317\332\226\005Q@\364&Xa\016%R@\232\n\311\265\024\200O@L\351I\366\251FR@\270\036J\225-\235Q@mj\002\277\377\357Q@\327t\255\362\331\233S@w\340\305\236+\373N@\006\337\364:=\243T@\226\242P\273H\251Q@F\310\314`\035KS@\310\351\360\272X\327R@\3240\253\265\317tS@\357`\3673H\361Q@\311X\321\236g\257Q@\322U\376I%\037Q@\252\2167/\202xQ@Cu\242\265E~Q@\357H\221\351\267+P@\0004\251\3625\312S@\2323K\264\221\264N@\026\357V\325G\365R@\2702\251\231\0249Q@T\264\301\246\263\265P@w\347\270\263j9Q@9\236\233\024L\317Q@\210c\274=\304\234Q@\030\243\177\202\360IO@E\271\310\024\214\271Q@\244\306\n\r\362mS@X\245+\241\026SS@\200\373\240qqdR@\307\230?*\003\260Q@/\365S\\5\036R@i\322\037\256\215\253R@v\021D0T|Q@\013h%!u\226S@]\356\273\177\347\301R@\007\241\316\200\034\035Q@c\3570-\205\263P@\315\246\021./WS@\234\331~J?`Q@\272t\304\235\031\223M@\036\332\t\322\320@R@\270\\\340\246\255\217R@nB\217\316\373YQ@\364I\321\254\367\007P@u\355\200\023\323\201P@\251\034m\241\342\300R@\362\010\345Qa\357R@\370\351\220\'\275\272S@\231\361\255\330\366\314O@T\231fo eS@\342>\235n\204\030S@08y\0201\324O@\350\245\347\236\035\373R@\205\332\215f\3512P@\036\274${\333FQ@\"\302\331\204ihR@\202\321\221\021)vR@\364\345\215\217\252\231P@\275ic\363\330\242Q@\301\243\372h\327\243O@an\202\341\253\326Q@XP\234]njQ@\227\225xS\261\207P@\260c\034\r:@R@\017\327\245\033\016\302P@\034N\324mP\365P@\243\33703\373\333N@V[\243s\nwR@\362\335\240\205\026jQ@Zd\024TQ\272P@HA\200\177!aQ@\275\001\037\303m\254P@\371\276\236\014\301eR@4\360M\367\020#Q@J\305~T\033\247P@1\216\310*\036!R@\211\361?\367I\366P@\315\020\211\337\324\331Q@&#,\302\314\272Q@\035\224\264\027\270\365O@\034]3\223\225fO@HD^\237\312\220P@\n\233\255\362\211\210P@\273\350\345\206_EP@\nWG\275\251\205Q@\320\314\030`?oQ@\334\330G\216\255!R@\226\2305r\245\033O@$\244\202\342\244\260O@=\365\007t\364KR@\214\2112\224\312\230P@g\265I\300L\217Q@8KB\213\344GP@\326\016O59\000R@\302\255\225.t\371P@m\023y\215QpS@\247:\266M\321\331P@\021\277\200Y\323\tP@\225Hd\216QfR@\255\325eJ\304DR@\356k\027.\224\340R@\370B\365$\213jR@yV\316\225Q\233P@6\031\r-\220\323P@[\314T\tp.R@\304Z\373z\003\355Q@\200\211)\2424\231P@F\r\354\374\332\tR@\327l0\363_\314N@M\245&\342\205\273Q@SZ\\\373^!Q@\3168@B\257\246P@\357\0017\004\023\366Q@r\345\217\356\r\303R@c\r)\2421MP@\235\337\022b\343*R@\"\216\306\371\"\333O@\333L\316#\256\034Q@$E\365\301AXQ@<\034 \374\360\237Q@\321\376#\202\027\034U@\347!.OL0S@\210.\'&\031\256Q@T4C\260\324\256Q@\272f\200\201daQ@\031M\036\372\330\006Q@\240\240\024Q\212\301Q@z,j\322\377bS@I\370\03399tP@\221\324\237\263)\223O@\255\265~K\310\315Q@\255\017\335\234\023\272S@\226\233\342~T\211P@HC\340\315\200\003T@\242\246-\264\257\231Q@\340XJ3\254SP@B\273~\016\354OR@\265Y\243\327\246\360O@\207\233\005\020$\367P@\360\270R\020~9Q@8\310gk\221\003S@\032&\224\212\355\346Q@kf0\326\321\232R@\251w[\223\266@S@\210Q\206$U\314J@\344\247M\367\235\307R@(\2228\204\240\026Q@O\006\024\305\220\344O@cp1p\335\177T@\034d\255t\017!R@\234\t\344w\337\307P@\255\302\035{\343\223N@\337r\021 elR@\034#\317\030\363\027P@I\234\000>\210)R@\025W2&}\236R@]\330\242^\2454R@\322\304\242\327\263^P@.U\210\024\262AM@x\346\276\351\255\355N@9\370/\007\205RS@\n\367\222\245\205fN@\350\302\353\024\035\351N@\310\333\261[VKQ@c\253\344\242\026\214R@\004)\016 \276\250Q@\336\341\3140=_Q@\204F\220\304\026`Q@\334\000\274\375\271lQ@F\233l:\262uR@\031\277Wz\021\204S@\327w%Q\277\237Q@\024|K\360xIQ@-\223])\003\201R@\177\271[R\241\033Q@a\317%sKsQ@\344\347\364%\004\021Q@4\230\360VC\202Q@<\373\237\371\355\003R@\351\n/\002dhO@\216\223\2261 \237P@\223Q\271\032#ZQ@)\3516j\022\004O@\232\226\323\236uoP@\032\265\213v\217\265P@\300\203tn/\273Q@\362|n<\303WM@|\342^\236\225ZS@\026\344\202\224\226OQ@\227Y\0273\326\331O@\336\357k\270Y\301Q@p\327\230\361^\316Q@\317\321\377vN)Q@\2545\312\340\211\345P@z64\r\206\213O@\303\301\004\243,SQ@\331\000\030\035\262\204P@j\371\206\r\226\330R@\312O\363\t\001\023P@\240\014!\214\236\320P@)\242[\365\211\374Q@\266\362me\367\342O@\265\315\226\204\026yQ@F\352\201A\3466M@G\257\010\336\1773R@\020s\324\234m\231Q@\346\232\037f\321eN@\347\223\315\251\201\320O@\264\215\234\315c\320R@\362D\271\302\220\010P@rl[\322\023\276O@s~.-\320\245P@\003\014C\333\267\376R@k\321\023^\'RQ@\276\022\220\022w)S@7\272\225\253c`Q@8\334\2357T\024Q@i\346\rQ\010xP@\320c\314\274\305DR@:9\256y\264\035S@\027\376\273\021C\021R@\31275\252\304\355Q@\257?\373{\371\357R@\304J\200#\n\275P@,\213\335\265u\206S@\214\030\222\326,\035R@Q\245X\212\265\345Q@0\020\305\306\013\321Q@\3420\347\004-\205R@cS\317\306)\330Q@\260V]q\232\374P@a\013\370\267\\xP@3\322\232~\275\007P@6\017\333H\340\210P@G\342\271\346\340\362P@\270\330\025xGLS@\304}\267d\026\214Q@\341\360\221%\016\030P@Z\300H\030 \307O@\352,\205U\203hQ@\201\222\217\2305\220Q@\315p\370\215M\007R@\226\237\361*L\221P@\264%\261\376<\263R@M\010\356\021\316HP@8\317\304+\243AR@,\226\274T$2S@\323\2243\3078\232P@z\363\271$_HP@1\310%\301\262\203Q@\266\272\340\307\204\257P@\027\007\224\'\024\201Q@\360\213\304t\274lS@\336A\000\234\242IQ@\260\260>m\261,P@\270:\374\310fmP@e\007\035(\211\362Q@\036/\203J\321\301P@\341\376v4\326#R@\344p\247^\341\216Q@\370/\327@_\244R@\230Aty\337%R@\2228\211\002\252yN@v\324Zj\253fQ@\354\033\330H\027\264Q@Et\210*(\203P@\307\223L9\350\222R@?\025ht=\262R@\342\200<f\263sN@\243\237\314\250\252\273Q@K3\303\353\016\250S@\220\255\331\336\347\356R@\213\343CZ\320\'N@C\3747D\276\014N@n\nB\252\352\036O@\340\256\306\333\360\231R@h\026\354\366\016VP@J\202\273\r\243\205N@\247\333\271\213\261\207Q@+=\333\034\206LP@\335\341\235\247m\335P@\010S?\"\375\322R@8\331<]\030\241R@\242\303\366\341C\202R@{29\201M\032R@F\272\nHC\215Q@\207[@\333\237\233Q@0\302\267\367\376\243P@\\\005>\241~\035Q@_psF\007\302P@\337:\345\342\307\307P@\016J5\027\266\026R@\254\260/u}\331Q@\376\255W:_\334Q@\nr%\333\304{Q@\254+\r\367\006\333Q@\240\301\332l\000~R@\270\006\025\2507*R@\207\002\201\035\304\302Q@\372\020\023\3475GO@)<\364lTjO@\276(#r\355\215S@\352c\354\353\364\333Q@z\t\241\340*\267R@\300\220c\205V\276P@\323Z\035\007_\033N@\3440\231c\035\305Q@MG(\363\355YS@5\346\313/\344\213R@&S\361\233V%P@N?\364\236\323EQ@\301\223_\0042\234Q@\317w\014\026\215\332P@\303\204\213\020\t(P@\351-\351\317\000\371R@\260A\271O!\\Q@\231\034\212o\201\010R@;\003\327\n,wQ@N\333YR\336XR@*n\371\315\374}Q@9+U&V\010R@\302\371\331\312\253\330P@N\324<q|JR@\324\365\301\230\001\217P@\374\344\204\360\302\242R@\302\311\007\300^>Q@u\372\333 \265\333P@h\024 \246\307\263O@s\302Gc!{M@\031\001\024\374\223\337S@,\236\206~\002\233R@\205<\223\023\037?P@\306{\244MB\262S@\311\334-F\343{Q@\257\306\034k\303\275S@\241\037\263W\253\021P@2\244\2542&\361R@%\307\226\031\214\251Q@\302X\355\340*iR@\270\260;\306\263xS@\232f\004\320z4Q@\343R\236\202\331\014Q@\263\025\270\335L5S@{\326\220\026\321\214Q@\250\322\330\343\354\301P@\031\337\376\3054\366Q@\r\023#M\023jQ@\326.\\t\330\014Q@\267\325\205\377l>P@,\253\202\037\353oS@\367\272\206\300N\307Q@\0062~-\357\020O@\302\2676*\'\323Q@g\'\021\365u\224R@\000}/\326^\227Q@\3705\237\210\321<P@\3150\374\"\007@S@\356\240\306mGDQ@\331\377z\350J6S@lH\330\265\373LQ@\334V(j\242\225P@kT\311\202\213+P@\277\211D\340U\262Q@\017gQ\245\316\243R@\221d\224\006\234%Q@z\330N_C\262Q@r\254:\357c8P@+Z\315N\211\255Q@\343\014RK\362mQ@\315\346\302\324\035\346Q@\241\016\361\010\312]P@\345\026\026Mv\006Q@\324\232\3201Y2P@\3325\350p)eR@\237\222\344\320\243KQ@h\036\326%\036oP@\362\312\020\3472\036R@\215\276mR[\202Q@?\265!\371?\'S@\026O\337\001!\007P@\224O\233\003\315\307Q@&\275A\261]\346Q@#\276\322]f\266Q@\235\213\375\245\232\033T@N\365e&\035YQ@(\210\006_\370RO@\343Zf\247q\231O@\275\306\353\322\316GQ@\247\213\1776\002nS@\2571\335\224\235,P@!cg;\211\306Q@Z\214\3425\353+R@\332z\260-{\273Q@9!\205\310\337\322Q@\3713\370ug\353N@\201r\224{*\344R@!U&x`\300P@\t\352\343\321\353@Q@k\243\214*\035\001R@\242\260\364z@\017Q@\001\247)9\310\034R@\233X&\344dKO@\344\333\350\177\202\270N@q4y-\021}Q@B\212\335K\356\356P@\\\0233\235\355DN@\346\374\016v\016\036S@\002\302``\275dP@\377!\361\271\352mR@\n?\020o\2376Q@\363\377\206\277o\236R@i\211P}\315\337P@.>\211\036\306\264Q@\016\201\326H\356\255T@b?\205`ZpR@nAcc6*Q@i\257\002N]`P@\304D\271\353\005dQ@\262\002\346c\260\315Q@\231O\251\274_\264R@\315H\272G\271\343P@\317\245\022\307\366\270R@j\307\260\373(!Q@\031\347\030<\341PO@\306\343\332\321\026\204S@B\036_\253V.Q@\031c\331\362N\324P@*B\003\202E\242R@\267\366\320\261\260\343P@\225\247\317\245\244\307Q@\273\020\021HH\203O@{DRK\021\362Q@\026-\006\253\003\260S@\001\277g\241&\202Q@3\272T\321/[R@\010W8\324\343\337P@\262n>z\344\026N@;j\272\266\252XT@\234\326F\226ZMS@\350\261A\251\'\177P@\022f=\312E\177Q@\313\262@\272\304\237Q@\367\216\360\203:\341P@\341\275\255E\031:Q@\300\360\347l/VN@h\215\004&\344\024R@\022\245V\034A\210S@\265S\r\014l\001O@\203\257\302~\271\273P@\217\327A\243\237\324Q@q\2479\330/bQ@\304\255\n\035\036\371Q@s\373\247\345\005\\T@\270\240\nJ55R@\0338\204\036o#R@2\026\307_\014=R@\236\213\277#\344\223R@\311\352I\264\347\262Q@\2724\224)_oS@\254\315?J\007\260Q@\014V!X6\337O@\226\355\023\r^\030Q@&\200\242\257\252ZN@h\365\020E\017\260O@1\030x\362q\332Q@\001\331\233\310\327\361Q@\023i\362\216Q0R@\303\245\235\236\365\362Q@F\352\376\240<\312S@\327T\270S\013FR@\301\336\004\264\riQ@`5\216\275\023\316P@\204\354\255(\001\301Q@\364b;E|\272Q@#\027\373[\370\363P@\372\245\253\2166\340L@\271\2751\002\356AR@\240\231r\031\323\365N@M\326\366\312x$P@\313Y/d\231\327Q@\027\201\331\213\226\225Q@\004\264O\232\364\226S@f\340\2007M\003O@-~\352L\262\264R@l3\245[\356\231Q@\270]\373\360gJQ@s\335\212 \n\365Q@\202\351a\030\244\216Q@\"\211\257\313\306\204S@\302\217\370\313x\032T@\2004B%\001\361Q@\215\254\322\260R:Q@Fps\3718\027Q@\234\351\030\032\352\310P@\'\312]\002\264\035T@\300\304mLV\013S@\272\371\205\024%\307Q@\204\217s\246\352\016S@\330\232\353\365\225dP@\331[\342\204\375\211Q@(\351\276\t\025\344Q@\177F\263~\020\347R@\213\367t,`\010R@\210\371\022\303\212mQ@$\010\376\0047\366R@{\205\234\003\353\261P@\232\263Wxw\014Q@\260i\353\234\315XQ@  j\017\211\026Q@\005\252\265d&RN@E\317\270\307\253\\S@\006\250\262\351\027\266R@A{\261\n)\250S@\214>[]\323[Q@g\317>9J\\Q@\231\334\325t{\017P@\023\rS)\t\007P@(\313ET\024pS@Ue\266#\252\355P@\347\276j\313\025[Q@\276\307\211B\2246Q@\316}F\360\276{Q@\237.\210\232\303\313P@\235\223\3776^>N@\031k\364XcxR@8-\207n\226aP@\335\226\374c\020\376R@\"m#-\004\361S@\250\343X\313\354\353Q@\375\214A\234\277<R@\261\222!\2443\247P@(\372X(\347\212Q@\250p7wX R@\267\235p/L$Q@\010\026\205jH\266P@]t\3422qdP@_Aw\'\256\345P@t{\005\236>\nQ@\026\206\260>\210LQ@\321VN\034V\"P@+i\314\267\314pR@\377:\372\250\335\247P@\317-\275#s\214Q@U\272\312s\310JR@U\001\031(3\036S@s\337\343b,\246P@1\222\300\240O\304R@\231\035h\244Y\230Q@\214\251\371\323\247SP@\002\234T\333\313\241O@A\013J\305\214\033P@\332\220\303\331\302NS@8\235\n\003\031\272S@E\005\304\332\177\342Q@\252!Q\317\373(Q@G\030\221\314@\323P@(\230\345\243\023gR@\004\311\226\313\003xQ@\362\3047\234N^S@\203\025S\344\300 Q@\275\334\212\355\350\033Q@\315\262\\\232\205\376Q@\342S\322\321m\221Q@\\\3427;\263\252Q@dg\007\345x\032Q@ \336\204\002\035VR@\272\226\231kG\310Q@\256\207*\323i\232Q@\343=mi\2309S@\237\312\326\240\205\nS@s\212V\343i`R@\343\254\241v8\307S@\277\37286s~P@\321: \317\025\010K@\251\323\331|\342GR@&c\\\256\271\nP@\255\327\325\315\377\302Q@H\244\005\343\336\217Q@\r\336\036B1\313Q@\017\221P\326\361PQ@\021\316\024&\330SP@\361^4\326`\306O@\031\273\217 \244\330Q@\253\317\367~\345hQ@\26649\362\356\207Q@\365i|\331\241lP@\352\3021\014\241=N@\345\233\265f!\210Q@\016X1\313D]O@A\332\003I\177\004R@d\t\327(o\005P@\346\304(\017SXP@\316\375\261\356\352]S@\351\376f\031h\036T@\020j\247\246\330=Q@\002\364\331G\324\265P@G\326\3566\215 R@\025\244\302jM\225R@\350\217 \241\374\273R@B\302uh\207\346O@\342\257\243*\016\\R@\242g\263\232\257%O@E2D\377\020\257P@\277I\300\357bMP@B\003\300`\343\223S@\206\244\274\206#1R@\315\234\0011a\355R@&Y\262\350\374AQ@_,\254\306X\302P@\237\270\250C!\275R@pd\022IdCS@\2317\305z\224xO@M\207\370\342\034lQ@\335\315\224\374N\313P@s\376\270\004\215\351Q@LI\021\333,\201Q@S\303\216Z\3707R@\031z\204\215\354\360P@\276\365\2730\277\030Q@q\256\n\"r*N@\030\241\235\225\037\275Q@9\307\270\357\253\241P@\324\310\340\025\032jQ@\347\342\000>AiQ@=\313\347\320n|M@\313V1\255\005eQ@\035s\314\336\276\310S@\244\215\316{K\234Q@a\351$%Q\301O@`\375\245\305\367ZR@MG\321\010-\342Q@\346\321\nm\356\367L@\374E\352\321\024\242Q@\335y\332\342\321\245P@Q\304\224L\271\252Q@[C\262\003;\254P@*\247\177K\333\332Q@D%\035\316\316\272P@~>F\244e\235R@\246\022O\350\302\253P@\261\252\245\252/\247Q@\365\215\340\307\351\251Q@\003\026\275l\206\306Q@\201\200xb\235BQ@\327f*b\222\205N@\225\340@\326\035\310R@\236\303\366\277b\367R@\2214v\002\257lQ@\3556\313\217\336ER@\030\252B\371(\264R@\213<\351\203\233aQ@\343\032\001+\263\230P@\206P\263\204|\375R@\304\2533\214\016\332L@\034W\355\017\231\265Q@\245\367\027\344\020\036S@I\200zA\350bQ@\\z2\275\031\334P@\013F5\327\027\321P@\225\'\271H2!Q@cB\373\\\345\311P@\263\014s|Z}P@>\347\335\273S\340P@\177\241\37418\'R@\335\277\345\305W7R@\r\355\301r$\210R@\354\314\327\264J/P@=-2$8\202Q@\374j\372W\016JP@\361\007\\~\214\315P@\334Z1\366\302AS@\240\221\211w\305\204Q@o\260Mt&\323R@\376\332I!aXR@\211\017B):\025S@\223\316\331\216m}P@\372\277\311\217\206\245R@\362o3\013iLQ@\t\363\377\026\3051Q@\345k\245\002\352\301Q@\276Uy\224\301\036R@\364\360\311\275\352\352Q@C\230\021\335\317\207P@\3463h|\303\221T@\3444\276}\242\320R@\234\315$\313\225lP@\217 \226\003\311\220T@\235\255\255\033)kP@:q\303$\234\334Q@\370\021rD\022LQ@\035nQWH\251Q@\272%U\326\224\371Q@\240\341\253-\217\240R@\353\303\245]\223\311R@\316\222\337\031m\\Q@\336\272m\320\014\233P@\351:\245\331\275DQ@\343\252a%$)S@\273S\310c\2666P@U\026\356\000r\002T@?\211\263$\342RS@\273g}K&$R@*\320*\320\225[M@\005\"\334az\236N@\377\355\227\245\306\344Q@mXl\224\215\004S@\221\305\355\253\016\346Q@F[_\264\036\367P@;*\364\374\336\000P@\212\366S&\006bP@\220\375\007\272nMS@@\211\'\036\242\346S@\335 \356\037N\302P@\254\254\360\r\002$S@\270*\233\215\017+R@?`\333\220~<Q@^d\304\204o\306P@\212\271Et\274\214P@\267O\230x\270\374P@\252f2\r\215\372R@X/\235\241n\377Q@\275`\004f\311\341R@\325\361\316\353\304vQ@\"\360\235\320\371\023Q@w(@\023\264\272O@\361R\357A\333NO@\003%\231\025cZP@\3522\354\244\337\035Q@\263\021T?m7R@+\n\324P\224\020U@\267\240\345\234\264TQ@\323\342\251\036^\235P@\364\231p\n\375\323Q@\240d\357\274\374\363Q@[i\204\344\305\220R@\245\247\250k\356HR@*t1\270Y,R@\\\364\2331\2054R@gG\010\275G\211Q@\330\373\301\360|`P@\010X+J\263^P@\\\337\200Y\275\242R@d~\337\020X@R@\312+wh\365pM@\203\230\206i)\344P@\220\177K\177\020\351O@\274\366ex\222\rQ@>U\2659c4P@\"\025\203\311\030\002Q@.\260\037X\236!P@7\321Z\036$\355L@8_)\305\317LQ@\006=[\303\226\251M@4\210\030\372\354#P@\370\323\\\242DbR@3n\246)\'AP@,\331x\377\323GP@~A\360\206\035\272N@\337\313-\2742\277S@\247\245&\007\352xQ@\241[(\247\262\216O@\331\021\025\303\347\370S@\256\343`\355E\265R@\"\243\036\024;lP@\300\340J+\301YO@ i\036\374\346oQ@\352M:R\276\221P@\232\241\325K\356wP@%\351s\314\203\367P@\034\344Q^\240BQ@\204\026\363\234\021\364R@Z\017%\306\177\030Q@j\243)\330;\366Q@\327|\202\"\265\335R@6\207\270([\274R@\214\376\277\331\004\251O@Lk\311\274\241\037S@\323\007\240\240\004\014P@O\006\267\243\233^O@\253\236%\224\257\345Q@\034r\306\335\203\342P@\353\021Y\222\021\002S@U\272\211\207\234\251R@\366\257tW\215xP@\253\370d\303\\\325R@Gi}\332\034\230Q@_\302\267\030\0359Q@\210\177\376\316w\303Q@u$\245\256h\275P@i\213\013\301\2431P@\354\213\207(\362\241R@\205\206\340\007\317\037P@\353\236\"W}JQ@\356\027\304\207\273\317R@\373\202\030\241qRP@\227Z>\276\t/Q@\224h\354\220\013\262R@\364\177d\031h\336R@\247\025\366@\000\337R@U\023\'-\347\371N@\275\204\214w\343\245P@jD\354\000xoN@\224\213=\201u\226S@\356\312\355\366\tsP@\005\275>\260\2740S@\352\234\276\210$\204S@6\236y\215\365PO@(]\033\335odQ@\332\006\014\023\'\334R@H\365\367\373\336\315P@\315VO\225J\000O@\'\233\303v\027\rS@k\332\230\240,\027Q@\3772\240 \003\006Q@\323\312\\\210\360$T@\252\002\376P\215\211S@=\362\210\266\265\305O@l`\336\242\177ER@eL\274\\X=S@\273\022}\230\356\"R@\223\305\343\366+dR@&o;\372\212\033O@\316v\225\3049\017Q@\230\376`+{\254Q@\360\304\266\t\017\361P@\207\211}>C\201P@\344\214\2361\342\216Q@\325\217P\252\034fP@\352R`,\247\220Q@\273\362\356\355\2003R@\262\212\2645O\230Q@\257E\343}wAR@\276\211\205Sz\201S@?i\265+_\221Q@\205,\247P\327_Q@H\265\3041\225\370Q@\275\351-\032\344\320P@p\246\251\265\262\304P@\2273\266\001\347\312Q@\'}\206\244e\315R@1\314vZ[\302Q@Ep\030\306F0S@\331\356(\215\265\274Q@\260\241C.]\243Q@\252K\"b\242SP@\260\2637V\311\356P@V\274W(\337\026O@\265F\020\255\0149Q@\243\014.8G\307P@\231\021\'ka\nR@^\352o\307\314\350S@\236\320\254\031N\014R@N\020~\364\201\233P@\010\236\312|\010\010S@\205\010K0\367\272P@\267O\314\036\225\267P@\260\251[K$:Q@\335&\306\0335\340R@+\224\321\220\253TP@0\332\035\220\320\364Q@8\227\243q\363\370P@\345\235hH\240\331Q@2\361\206%\326\240T@Rk\356\351\245XR@\250$\206z+cP@?\23190\237CR@\014P\363\t\010IR@\010\007R\021p\203P@B\301\376\003\266\036Q@\371\333\254\276\023\373Q@\017\366\026\344j\254Q@\367B\025\313]\'R@\351\037\031\246a\346Q@k\2736\201\224\254P@\333\005PO#SQ@\335wU\244)\021R@\027\352\004\354\331\230R@\245\225\350\227\215\247O@\006\335\301\367\0109Q@T\253\253\213[\013R@\217k\343e\215\222R@\263@\263\377\257\006R@\032\016\214\227\000WP@\261\322H\364\313\322Q@[o:\321oFR@\354\033\234\027\247\035R@\372$1P\263\373Q@\361\372Er\346\360Q@\034E)\317\002RR@\227Z\345\326\177\347O@\207\017\320$\031LP@\006\341*\301\246kQ@\211\004h\027.\261Q@\260\207\360G\314@R@O\2168\253\027\370R@\334{B\310\261~O@:\227:\325\201\270P@\245\367\201X\201\035Q@<\363~\222\340\216O@\306:\353\035\224\036P@\007&L2\004\270P@r.\346V\313\363T@\310\304\360#\240\371P@\343\340\213-~+R@\333\321\313Q\252\271P@\374h\355|\006\241Q@P\2647\333&\324Q@#\200\317\215\244%R@X\353 a\303jP@*\016\300q{\000P@\'\257\341N%kP@Q#Oj\355\276Q@\242\277\202C\033FR@q<\251`#\020Q@\321@9Hb&P@_\333+?,(Q@\344\264\364u\227\344P@[\232u\033\rCQ@\r\035\341\206\217\371S@\256\320\230\205\013-P@h.\317y\303\273N@\037\360\362\002\305\226P@\236\035\345X\202\036R@\213\r\240\214DER@\271\210\345\246\r\001R@M\360=,:uP@b\267\305\007\353@R@Y\304\366\303\005\013R@s\024\006\324g\202O@\212\347\261h\360dR@\013\003\253\315\301\225O@\310\234\330\366?\311R@\250?i\"\241\325O@\374\013f\037\245iQ@\361mx\372\025OS@\210\255c\347\226\305Q@\337\254\244\345\347\331S@:_+p\350UP@3][\335\216\241R@@J\352\020\333<O@\014\226H\002\306\231P@l\266K\220\260\362R@\326\332\261\274\025dR@[}\225Vg\366P@\314`\025\352\036\014N@r\211qI\360{P@\226\3506%\267\334O@\247X\0049\013\221Q@\231\366\005F\366\372N@\017\034\336V.\314Q@\014u5>*\027T@\320\361ArprQ@\244,E\361\353\302Q@E\213\033\334\273\275O@\363^`\313\367\371Q@ES\215\177H\256P@\331\262RE\354\365Q@/\276`\022\206\034Q@\34246\'+\326R@\304h;j\201!S@;)\254e\370SP@\260\332<\231\037\220P@\262\357\005\355\304zR@\2011V\304>\202Q@\316{\264\030]~R@&j\234\211\025{Q@?\242\271\001\'\346S@5\351\377~b>Q@\205\013\272\'\032*Q@(\242\322Y\212&P@\\\353\266\242:\251P@\324/S%\034\371P@\275\220\243\237j\320R@e=\376=\377\355R@\3526\262\260z?P@\210Wr}\037\033P@\265\211\313\334S=P@\031=\365\212\354\227K@\t)\225YZ\202P@\364\263*\362\353\005Q@|\224@\302\2758S@\215]\0269\242\341Q@N\315\232\211\250\022S@\351\366,\376\235KR@\336kA\306x\357R@\243\352\023\332\366\303R@\001\\\251m}\301R@}V\263 \001<Q@g\363\203T\364\231Q@B\366\246\302\314dS@\025\346\007\r\3005Q@\024\321(\300\377\'R@\002\301\345\340\227\253Q@Y\217Y\243\314\202Q@rfi\257F\346R@$abR#\221P@7\211g\234\354ZR@\276$\343\"\365&O@\333ci\205\010\246O@\205\347\273\243\023\004R@\256\305\222ez\206P@dr\303\364\371\004Q@\002/\217\312(\226Q@\312)\203V)\344N@zC\256\255\rAP@\265@#\246 \240P@P\035\000+p\241R@xg,pJ\226Q@\375\363\324\300S#R@\037\230\354\371E\202S@5\342\213\343\005 Q@[\360\007\254\273eR@\245\3767p\301\212P@\236\"\036\3175\216R@\317\350G\370\277^Q@\233;\305<\365&S@f\'!\265\322\257Q@\331Lce\337\322R@\262\363c}\223\332P@\032y\013\277\247\231R@:\307\310\300w\312R@\226\325\361\327\325\260P@\236\235q\215\005zR@c\033\353\275\234+R@2\377?\034\3308Q@%\035\344C\263\206T@\343\344\000[\337\250R@\330b\307\243\254\310S@\020L.JP\301P@\034\301\214 \366\177O@\027=1L\243\226P@\351\203\373? :N@\254\234\204\342\032\nP@\323FUO\324dR@\247E\333\023\326\036Q@\254\3241xRcQ@\332\036\021QZES@\337\r\n\n\245\313Q@V\312{\241\352\250Q@1\275\305)\370NP@@\301\235~\260\331O@\200\237\240\006\344SR@|\261R\217\246\002S@[7\363\366>\261P@\013\335\r\006z\375Q@\231\033q\341S\367T@\261\367\202\274\r\224O@\220$NZ\313\376Q@\004\261\264@\265\031S@On\206R\276hQ@\355\312\321>WJR@\217\325v\222\370AP@\231G+\315X\256P@\026\356\257\017+7Q@\3031\013v\270\000P@*N\r\004\014sO@\244\260C@\256\333Q@-\366\263\204\330\341O@Bx\014\246\370cR@`\3545\344\212\034S@\303\347\276\264\317\364Q@\262\230\271\316\344\033S@\356UZ\251\006xP@k@\303\300\323lP@R\353\367\013\226/Q@\270]\004\232a\346Q@S\317n\177\237>S@\0026U \255SQ@Og\017{C\235T@\217\300\320\222s\237R@K(\r:\003\342Q@^s\334$\010;P@\255>M\212\220\210Q@)\2575\260-\327R@0\331\033\253O;P@^MG\224\242\360P@\347\326\356O\022\301R@~h#\016B\367P@\274VX\270[\247R@\210\247\307;\200\350O@\222\330<+{\335R@\205S\263g%\037T@\361\346\241\210\007hR@\227GJ3=xR@\351\253p~\031\031Q@]dA\374\006\370P@\027\252\317O\261YR@X\225\201Yl\"Q@\302\032\224\030\367oQ@\0251\252kc\301P@\346\273\366w\003\022Q@\036`\035\262\031CP@F\366\326r8\034O@Gk\206\202\214\346P@\306v3x\320\022R@2\205w\307\006\350M@.89\263\202WR@\215\352\305\371\314cR@N\001I\033\356\312Q@u\013u\222e\217R@\343~ \233\371\tR@m\t\013jW{N@\212X\274}\000\250P@i\337\214\344J\343Q@\024\333~\004K\032Q@zE\035%\343\264P@\376\227\337\201\000\252P@V\342)\315N{P@\266\273\321\277\267KS@\312\203\037=\371\263R@*F\223\335S]R@4\362(D$\362P@\316\363\365=\r\325Q@ts\220\313\353\353Q@jD\235G\322\372Q@U|\301\263\311\036Q@g\236\325\347\305\317M@Ta\"2\002/Q@\243\274\023\346\306\257Q@U\352\371\227c!R@\267\024\206`\277\251Q@R\301\232\337\007\242R@J\252\350\242\3250T@y\227Oe%\350Q@J\251J\334\277\367P@\024\233\010\3646\363Q@Kd\271~4mQ@XWy\037\315\247Q@O{\277\241\032\351O@\256\306v\362pjP@\367\006\354!yXS@.\301\025\220\2436R@\252\265osl-R@\230G\327\270z\250Q@\216o\232\0140\321R@\373=\205\210\037\206Q@\364\320\306\272\014\343Q@\376\375\262\307\005\356Q@]yc\305\2508S@\337J\'-uZP@ \262\353\263\215\342O@\023P%\tvHR@OvHL\311\310Q@\273M\3672c\205R@\016y\020^\253mQ@\267\315\006\tN\365S@\204&A\222\364\326R@\371\303.\273N\245S@\251\377\311&\023_R@\352\345\265\233\275\213P@\213\343\335\320\216aK@\3466d\345\007?S@\010\220\244|/\343Q@8\036\366\237\000\314R@9\337\033\343n\346P@deo)tmP@}\355\033P\343\306Q@\363&f\257\231\373Q@\216\314\257/\330\375N@\353\033\205y\261\232P@\0034\321\227\354\363P@\232\222\352\023\317GR@U\243/-}\037R@\007ruk\200\275P@r\253\360P\027nR@\000`p\347\026\210S@\263{\372j!\032Q@\'\210\253\274\315iS@\302PL\333C4Q@;s\241\351\361eR@&\202z\354&PT@\026f\020.\377\265Q@\301\304\314K]\351R@P8T\025B\037M@\241\310\247\030y\331P@\370\024\211/\210nR@0\225\204B\005\177Q@\027\341\3137q\356Q@\353\032\206\252\336pR@\304)v\317-|Q@\204y\330\212\377\351P@\312]\254-\217WP@\267b1\351\215\272R@\347\037\303\262\362\335P@n\'\214$\241\215P@_\343\355\3676|S@\016\226\341v|bP@\210\351\306\366\343\246Q@\023e\210<BLR@\200\23080\220\030N@\315TGhA\037Q@ \354`\212\270\231S@\360)|`\256\253Q@\205Q7\253S\261P@\237\270\251\t!cR@v\024\351\367:oO@\324H\315D\020\303O@\254K\333\207\0205P@\2121\362\345\352&O@=!\212\265\263\335R@K\264\276\345\016\224Q@\202\206h\323\233\032Q@\013\027qL\261\370Q@\313\310\270\334\036:Q@\224q\000\257$IQ@\370m\335\246\307`O@@\316\330\325b\327Q@\013\254\022\362\235\205P@J4\247\203\177\315Q@\020u\310m\niQ@>KYw|!T@\026\256\207}\311;S@\024\022}\316\026MR@v\'\373\016e\370O@d\360j\374VYQ@\000=A\377\351\376O@P\344\236\265\177=T@]\351\367\351\r\354R@8\214l\177R\277S@\234\006\331 k\240Q@\232\013\361\314\003!R@X\0271;{9Q@\3238\300\002Y\356Q@Q\332WA\016\344Q@\003\227zW\244\261P@2T\037\306o\273R@\355X\274\360\001\205Q@\345\n\367\305\273\244Q@\266\246\'\250\201\353R@\037\030\206Rv\333S@\303\320\250\341\233\257P@\313\247\316\021\223\246R@\rL\255\271\rsQ@\273\3313_O\373R@\001:\024\006\227\263Q@\240^\213\216E\315Q@\275\r\'\002\004\271R@\227\217v\337\212;R@\000!\270\025\234\207Q@\364\305G\240\037#R@>l`\350\002*R@\245\206\231\243\201\023R@N\256\256\370\235KS@%\243y\326\375MQ@\035Hp\350\256\252Q@\2316\001\346\271\243P@\216\363\240wg*R@Lx\204\262\332?R@L\255\316\027\230WO@\322\201\200\335\352\217S@\223\241\017:\214mQ@\001C1\202e\231R@p\376ac\356\215N@C4(\273\0172R@5\r\221\024F\240Q@X\327\354\3536}Q@\257\264\232\244\340\024S@\023\356\201\336\255\317R@\213Z\314\210m\303R@z\202@\324\001UP@\377\330`\236\355@Q@\316bs\037\263)R@\261w\245\\\250\366P@\006\326\303n46S@\001\351#\302\204\224S@M\261M8n\304N@\312.\007\252\'\214R@\014\220$]\037\270O@\247&|#\373`Q@\313\346#\200DjQ@20\346\346\177ZQ@\250\t>\350\257\003Q@\025\261\337T\250mP@\225+\205\037\007NP@O\306\377\032\307\024Q@b\373\321\377\2458Q@*?\223\027\354\330P@%\232\014(\207\345Q@~1\310\323\216UR@\341\366\327p\233\245S@A\305\373\223\331CS@l\3113:\221\312M@k\202\020\200\327\276P@m\301\214\375;\375R@\265\334\252T|\372O@\225\336\340\313J\362R@\271\263\230\n\251OO@M\246\316^\302\327P@\3074\r\251\240\035S@\016Z2S\245RP@M4p_7\240T@lr\356\001\005=P@w\201\212\247\3071P@\246=\026_\235\214O@2\341\245T\374\324R@R@\221\257~\021Q@\326\367\331lK\355Q@\240\341\202\271\022\214P@\tC\322\360\226\004S@\274\247\222V7IR@\247`\344\317\300\207Q@\361\330\243\214\337\022R@3\313\202\325\177/R@n\223\274\323\207\370P@L<\214\3179\237S@&\364~\205\206\257P@\t\326D\202B\\Q@7\200\217U\330\244S@\352?\334\261\322\356P@\003\'7P\312\271Q@\217\211\351\264\014\036Q@\022\014\277C\200\312P@\211Jm\007\330,P@\357\017\331y\304\201Q@\013\241>\301\004UQ@P\366\265G+GQ@\t\300\017\023?\304Q@2\263\313\206m\216R@v+\021\351\346FP@*\022\223\034r\220R@\313\310\362\237UYQ@\207\234rdJ\237S@\250\006\343\312#\010Q@\302\217\027\352\022\tR@\350\216\320p\232\335Q@?\rD-\245\274Q@M\276\222@_\250R@\013\364\023\356tIQ@\371\267\374\243\323\261Q@\2422i\211\337\277Q@\010\305\005=\260\333M@\365$~e2GQ@\243\334\0168\303FP@4\006\225+U\032P@\367\235<36\224R@m\204\3345\236\360R@:\005\320\2760\005Q@}\213U\3036\317P@\3774D<\341\211R@<\246w\320r\324N@\207\177\0027D\301O@[\017~\000\2639S@u\315b\036b\354O@\346qz#q\303R@\017\033M\254t*P@\234\203\307\334\216\357P@b\361\213\272\210BQ@\n\342\361\325C\204P@\313a\300\260\351\\P@\325]2\302\274.Q@\222\341\352h\207\346O@\251n\314K\375!T@\n\215\256\327p\221R@S\306\306\242\264NQ@%(\217\013#!T@\0020\265$\256\226Q@\334\271\307\225\313\311N@g\3653\312\033oM@!\316\200\352\014\276P@\nO\341Z\356;P@\201\352,_\004\271P@q\322\210\013D{R@\000z\\<\330\tS@\210\334\022O\374|Q@\270@\225\376\005mS@c\300\343\304q-R@tM\323f\026qQ@\313?\n\026+\372P@\310\004\243\320\230\372Q@;\232\2764V\035R@U@it\346\230R@gu\3536!\355R@\300\275\206\245\037,R@\rI\2264@\215Q@\235\325\n\377\tsQ@\\\006\370\023B\021R@\247\200n\031\261^Q@\214V\361\253e\242S@T\n\323\267\352DQ@T_J\253^\003M@\251\'\217\266\317^O@\220\330\354\361+\275P@\316\202\'\033?\226Q@$\003v(\022\355P@\216\347\262tJmQ@`6\201\327\3617P@\227#HN\211\303Q@\247x\223N\347\214P@\270\273*G\311DQ@W\223\225\025\031`Q@$:f\341\364\345S@=\036oj\275zQ@\267-Ced\232P@\023B\302h\356\017R@\262\007\312\000\330NR@7\314\254\212\271\352P@\206\300\334\332J\311P@=\216\203\321\2217T@\352*\260\013pSQ@Q\023\367%\265\211Q@1\016\230\253\200-P@\361\267*\267\361\325Q@Y f\277g;T@\'V\036\342\332ER@a\207u*\362\364R@W\251\261\"m\214Q@\215\002v\207\277\200S@\231.d\307_`O@\275\010.\374\027VR@\035mi\206\356\375Q@g\006\316\021y\303R@\363\023\202\034\r\260Q@\251]\303*\\8R@\270\256\374W;_R@z\255g\347\010\033P@\211\372\261\365\013iQ@6\374\216\002\365\310Q@\275\016\243\373\357\034R@dx\357\3761)Q@\346L\270\010\352\250O@\367 \231H~PP@\211T~YC\266S@8\"\"\373Y\205P@{\332\322\322\244=R@i8\005R\026mQ@)\214\352q>\236R@0\261\217c\203\274Q@\356B\035\303\027#Q@\301\276Y\360l\272Q@+\032\365B\334TQ@\321\2216M-\'R@\214q\255\217D\217R@A\270f\274Y\001Q@\334\343\375\273\014\374S@\344\357\224\\\234ZQ@V\210\347\277\221\267P@DS1q\0231Q@\0257\177e.\273P@\000\201\226\356\346\027Q@J~`\220\317uQ@4\250\n%\371\355R@#\361\233H\251VR@Q\344\236\311|\007R@\2723\263-\2664P@\214\324y-\375\344Q@\317p\364Uo\362Q@\307\'3\336qFR@\360=\201\245\006wQ@\244S\261jEZR@\355\322\210\263G\023S@\306\227\230U\001|Q@h\327\321\002\346\177P@T\202\014\334\2042Q@\274H!\t\005xP@\200\370\302\316\320\'S@\205Zg\203\2425R@\332\335)\265\016\357N@\240C{\274m\356O@\347\301\357\231{\321R@\270\027\006*\005(Q@G.\266Q\014\315Q@\312\375q\004\302\277Q@\270\007\346\231I\310P@M\200\205\325?\224Q@r\216\375H\363pO@\252\371\021u\314QO@\321jE\336\202\213R@\022\\\274\300\223\025O@\237\345X\337\371\177S@@\"\275\366a\235P@C\006\223%\326\317P@\255\270\\\366@\352P@W\332_\355\363\363P@\037\024\323\020\352\347N@-Q\330VY\213R@K^c\336\335\\Q@\254\037\177|\376dO@j~\n\261\022\327R@B&w\224*\252P@\202\277e\312`\373P@\275\271\215n\225\355Q@\221\2717\211\252`Q@\354\313\253c\007\004Q@\0073u\205\271\"Q@\362<\345\010c\022R@\203\302\324\260[\355Q@\232\005$\300q\364Q@xdG\226\254\267P@\364+\032\010\274\024Q@\200\016\274\374\342NS@\217\235\003\227\226;R@b \221\272\3409Q@\336\225\274S_\265P@\362\254\350\032\342\207R@\336)O0\034JP@\265\\\201\246\207\214R@\260\3744\037\357\310O@\235\334S\306\"\220Q@\220\\FuN\257P@Jj~\376\306\032S@\253\304l\350\221\014R@\377\020C\355\376\035R@l[\027\007\360|Q@0\204_\020\3530R@\320\342\326\335\360\230P@\264\352\227\300\341\351Q@\217\206\262\007N-Q@e\r\341N\022\271S@\324^\377\221`\014S@-\215C\306\'=S@\322<\321\215;\346P@\\\357#\331\r\202Q@ \223L\317.\357R@3\032r!j\266P@.\245.r2\325R@\355\017~\037p\370P@\367\215I\274\255\030S@\r\266o+J\217P@\330\334\217\234\276\363R@[\366\216J)\367R@Y=\350N\223\222Q@,`\003\025\246\262P@}\353(X\236\270Q@\311\211\247[\265\222Q@\030\007\353\345@]R@\004jZ\301\006\317P@3\310\216+\231\005Q@\027\207\237A\323VP@\033\026\2675;\372P@\231-\237\000^0P@*)d\331A\334Q@-\244\257\220G\001S@\005\210\354a(\273R@D\266\031P\213\304Q@\327\004!\256\2779P@\203\363|F)eQ@\037\030\021\342\324\347Q@B\311\336\264\332\333Q@\344\024\367\225Q\230Q@n\270)\357\304\226Q@\260\367ey^\244P@\271\306\201d4\346Q@\252b\025\031\272\352O@\243\313,\253wZR@\250\001\275\0023!N@\236\232f\222\r\\Q@\336~<\2516\tQ@\232\205F\221\365\016P@C\343\201\346\376YP@\260\204X\013\220SS@\326\001\026Jh\303P@\202?\303\240\313\271Q@K\030cfj\356P@Q0\250\375\260\314P@T\306\027g\226UQ@\235D\212\312\004>Q@\254\373\301\336\344LR@\200Lu,\rOR@\007\354\274o\364\027Q@\331\311\037W4;R@\311_T\224\0365R@{\262\332\237\355-Q@6PM1\243UQ@\277!\237\355\341\376L@iC%!\032GQ@\235\032\036\251\307\035Q@\024\002\014R(\336P@U\307\022)f\236P@\330\307\357\nK>M@5U/z\325\200Q@\221\365\327b\250~R@\255/\366>cER@d\365\225\032\205\325S@\006\031L\333\340\344Q@\177Myi(\251Q@^e\016\320\221NR@rL\013\"\330yR@w\313\330\267\361rP@\001\354\2170\321\303Q@\024x\212X&\240R@o}\204(\315uQ@\362\256\271;G2Q@e\213\253\351h\360S@(n\032$\017\034S@\352\242\213\321\247\251S@\031\320\265\354\215]P@)\010LR\356TQ@\025x#n#\250P@\243\335\215l\313EP@\t#\260w^\022S@\235\003M=\307@R@\233+\325\310\306\277P@\013\276\035\262\302#Q@\335&\003Lt\264P@\000\345\311\214\200RP@\014\'\233\242^\373P@P\227\336\211\237\260O@\031\246v\215\031\265R@\0378\t\034\232?R@\376\031\372U\202\261Q@40s[b\242S@\206\246\212\254\372\215Q@\227#\032t\312\372Q@\t7\021]\224aR@\'`\271\231\370\201Q@y\225h~(MQ@\257o#\033\354iS@\346\301\374\335\262*Q@\td&\305\201\363P@1T\321\221\300\213P@\005z\021\320\212\352P@\275:\250\336\226-Q@\035g\320\364\277\272R@\3675\352\261\016\337P@TL\3379Y\375Q@\363r@\001!RP@\245\331\300!\310\353Q@\203\177\017\335\006\203R@\304c\315\301/\020R@vJ\242\350\2054Q@\346b\231\230m.Q@\220\201\033\213\031\221Q@^\r\321Q;QP@\310\031\260O;\331S@\006\207\240\351H@Q@H\367q\243 %S@\373\3532\371\3147Q@PE\201\307J\351P@Ls\326\277a\243P@\213\324s\247.\\S@\010\362.\002I\202N@\211-\371\004\031\037N@\335w\301\\\307\347Q@\260\352U\271\206\021Q@-g?C\346gQ@\237g6C9\271O@\317\325\252\352\013\244Q@u\221=\356S\022R@=\231Y\254|yQ@\234O\237d\314\327Q@GV\030\000\345\006Q@\251t,\312\302ZR@@\253\235\373\245\010Q@q\375\240Sa\'R@\235\230\274V\013XP@\210G\200\371\252bQ@Q\021s\025N\014Q@\346\021\016#\360,T@\375\325\315\305\352\242S@2\020;y\327\"S@\367\306\354\036y\233P@\214\210#\220\301\247R@\334\357\245\376\354\026Q@s\343\313\261\304\215R@s\'\241w\247 P@\345\277\230\322m\276P@|GZT@6T@\230\'a\315\003\216Q@\271\350[\2160xP@Ve\321I9\034Q@\317\004=\227\324\357R@\267\351%9H\037S@\014[\345\347>\235Q@<\024\034,\235\256R@B\215L\240\332\267O@\nEC\234\256&R@\214\356\343\020\262\247P@p\272\213\214!\'R@uh\210\227\211|Q@\".\036\223a2P@\310\007\261\346\t\013S@\235\353\375\232/\356S@\202\275\375g\206qO@)\251M\200\204\321O@8^\223h\353]R@\376g\26336,Q@\244p\343C\325\246T@\336\311\344\335\367VO@i6\216\306\373\233P@\310\005\002\001qvS@O\372\"?\340\244Q@\023\025\347K\177ZS@\036\342B\025\316nP@c\030\020\364^\230Q@*\031\373v\304SR@\264d\3153\275\331Q@\201G+A;\305P@\035\303\314\2572\370N@F\303j@=zR@&\321P\222\374\016R@\340\361\3077=\365Q@7P\255\212\354\310R@Pfx\035\t\tQ@Y\317\273\310\377>R@\373\240Y\224XwQ@`\357A\231\344\032O@+\213\001\366\016\322Q@\266\324\354*\n\367Q@\366\024\346\221x\216Q@\271F\367\342\222\274P@Q\257\016\222\351\222O@.*\335\370\313\227R@\332\373\032\373\312\223N@\221\263\351\304\312\034P@>y\207h\345\021R@\177j\0347\000\025Q@>/1P\370\030R@\253\305\252\016\214qP@\210_5\311\034\341P@\214\341]\201\376\275L@\272\032]kd`S@\305$)R\026\033Q@\236\273w\027\371\236P@/\034\032*\315\267Q@;Z\0167\342\317P@sx\177\024\376\244P@\262b\275\306f\363Q@\216jd6\003iP@S\204U\'<\364R@\302LM\3775\207Q@|\233\325W\215\362Q@\261\304g\241\215\201Q@#\023HO\031\370P@\350\031\2272\021\344P@\02133\'\0360R@\020!\311\322\245\tS@\362\3003\354hWR@\327m\334\316p\237Q@\001T\021\375\232\025O@d\203U\237\274\271P@X\361!\221\212uM@\277\235\371\361\245\274P@\236>wF\205\207Q@\320\365e\222KBS@j\351\323\231\300GS@\231vV\334i\356P@\037\254\346\334\330\027Q@Z\354\262\324\255\336N@ z\345_\256\032Q@\240\025\223Na\336N@\341\017\374P\273\001P@\303\343\006\342\257\201R@\274\3242\205\360\350Q@\'\0367w\271\'Q@\306\3228\372\212FR@\034A\315\304\260\335Q@j;\"\020\361dQ@cFy\032[\331Q@\254\3370\2404\215Q@N{\235f>\274P@\355\200\257\n\307\031R@1uL\331\200\273R@\313\311\315P\037\325Q@9T-\027\340\271R@\2724\233\314\000\331P@\351\376-\"\013\266R@P\315\347W\221 O@\376f\367\255;\220J@\252Zwj@]R@\205@\370f\204\260Q@~u2\343\337\334Q@\212\235-\312\350\014P@\340\225\215\215a\350O@<\202\251\227\272,P@\200\202p\000\254RP@\244\236\272\237\363OR@)\361*\232\273ER@\265\30721\r\032Q@\r\177AI \274P@\231N\306+\0244Q@`\017\003\037\261fQ@%\301\305\360\027\'S@\245\267\267<\265\322O@~\004\347\221\2522Q@\207\262\212i.xP@\205M\010Y\257\200P@y5P\236 \223O@\356%\335M\204\245R@\'\014\252\325\016^R@\033\0027\361\201,Q@c\035\314\310IaS@\374Ln\275hLR@\222A\355\212y\307P@\366f\3372\226\327S@\014\377\263\tv\003Q@(\315\363\367<\200P@kMhBn\332Q@2*\301l\262\035O@Bww\'\335rQ@xN\025\030K\311N@\246H1\030\3358P@\276\031\2336\250\323Q@\376\270[\375\313\350P@\020\213|\020\226sS@\213\355\326F\212\235P@\002\006\371\226#&Q@\304\347w\313\2773O@n\235+\343J\264P@\221\333}O-KR@\260\240\322\206}$O@;\'=U\202OQ@i\256\257K\204pQ@\224\204oH\360\002P@\207\374{\214\262BQ@\206\373ue\255bR@e\373\332\251@\372P@\230Sn\322\030;P@;F12\024\262P@\\<\231\013\n/Q@]\035\304\375M^Q@&\241\354q\232WR@m5\033\264u\373P@\035\014\251\321g\363Q@\333\205\314\266]\203Q@ts\361\333\305uQ@j\350S\347a\217Q@$\363\200\375\360?Q@\233e\020\352\037\342Q@n\'B\241\217aP@7J\371}v\000R@\352\2645M+8Q@Q\316,D\233\353Q@b\371\260\234\241\305Q@\361Tz\260\374TR@\254[\317\370C\212P@\233s\251\033\273\266P@\035\324\n\352YoS@@i\343\224\201\000R@\177JE\222\237\265O@W\276\240\221\353\rR@\005o\025X\375\347Q@\031)\271\337\005&Q@\364\332[\317\337\033O@\357\027E\255\260=Q@,\003J\246\265\246S@([\371\355\342sO@\264\366\316\243C\034Q@t\2066\265\010!R@\2149\246FT\337P@\312\226r-\241\367P@ks\265\366\325\335Q@.a\262\223\222RP@\316\317M\2429\023Q@\377\010\206j\025\237Q@\016\016\3673\014%Q@\207\336<\021\255\201Q@6\242\210\337|\272Q@p\013\310\261[\312L@\247y\312\264]#R@\276\354\270\264\373\344R@\204\'\264\314\327\350R@My\337>\331\225Q@\345\231\336\241\034\321O@/\350\372\246\227\243R@\225(\375O\006\244Q@\200\344Q\2627\317R@l.\001\260\266\203Q@O\333l\022\254\347P@\367\033\256l\304\000S@*\004\253\272\235$Q@n\357 h\302wQ@\300\362\340\r/`P@Mh\362\256\265\313Q@!\3470*\210\244N@\341n\373\301\367IQ@I8\177\325\345\033P@\326<\264\r\250\026P@\241\257\027N\220\305R@\n\030\025\357\232$O@\355\243\272(3MP@r\376K\367\325\310R@\314^?\253\233\351Q@?\225m3\022\214S@1\014\346\352$CQ@v\254Q\311\314\314R@\334Jp*,\tT@\tv\244\tJ&O@G\36067\000\342S@\003\033\010\245\036.O@rM\216F\360\010P@\312\377\263\277\226\343Q@\026\270o,0\257M@\032\272\265~\240\227S@\341Q\275=\207JS@9\212\361\006t\201P@\255\262\022q\002\017S@\277\315\355\342\345\031R@|\"\226\341\346\031R@\036\030\302\n5\370P@ \201\221\":\016R@0\235\371?9\241Q@d\271w T`O@xv(\261\016wQ@\207\217\033\270U\314Q@\373\000,/$\243P@\216\320{\022\314MQ@\315\307\211\214\272FS@\032\026(\335\217\271P@RS!\377/\034S@\025\254\240\237\203\211Q@\240D\262\253\200?P@\246\3319\000\025mR@\216D\320\256\360;P@\33568\314\216qS@\343\341\025\333\326\333Q@\253\347\252\250\345\215O@\257\007e`\320\267R@AGTQF\342Q@i\234\026\314m\324R@\314\312q\031\225[R@\267\"\344\262\373\264S@\371\337\273\017\026\237P@\013\356\220\323\3037Q@\216B\274i\312\240Q@\017\223\272E\256jQ@\226\233\220~z\204S@N\237\240\n`\307R@$x\017X\007\362P@\036\000\333t\311\242R@\026\265\324]\211\035R@\323\367\330jfXT@\213\321\340\312\334\334R@\005\316\n\361M\rQ@\363?U\023+OP@\"p\201\247\227\244Q@V\203\374_-\221O@\311\017R\350\273\367T@$\343\246,\325\031R@\377\361\341\323\302\244R@\260\225\246\314\234\010S@\341\337N-\222QT@\210\263\365\352\017\"S@\252\321!\206\244tS@:\320\370\227?\373P@\335\333\032P\2113R@H.\025\371\337PQ@a\017^\203\245\303Q@\ra\200\202\027yS@\024\234s\322qCP@\004\324\001\'8DP@\300\253%\316\237\232P@\303U)>\024\203P@\205\034Z\303\324lR@\265 \n\245\027\320Q@\352\362^$\311#Q@70\363\nM\007R@\301szy0\245P@N \346%k$Q@\t\214\250^|+R@\316m\340Pl3R@\332m9\346N_R@\331\300\204\362\374\020Q@\035\016\244\303\016\362Q@\256=\363\340\237mR@\023\2138\305?dQ@:i\301\001}aL@\242\n\240\312y8Q@\277A\203\000>nQ@\266rG\216\027cR@\262\202\352\250\004\250R@d\256\304\233\377\032Q@\220>_\376^@R@#R\026SY`P@\tVp>\262\343Q@`9\266>\247\275Q@\014\373\363\351\224-N@\001MM\207rrR@\366\217\303W\224\261Q@6CEr6\312Q@\226\334\020k\344\340R@\235\276\006\337I`R@\025\277\307\364a\026R@0\034z\360\350\310R@\'d\346%\224&Q@\300\273\272\036\200\361R@\257\367T\021\215\361R@1\361\210\215\272[S@\n\356\211y4\027T@c\225\337\'6\233P@=+\374\255sbP@oF\305}\324\337S@%\373\377\354\026\371Q@L\320\203\271\352#Q@5M\210\245\332SQ@L\031\022\210\031\317T@\252\336\236H\212\005R@23Y\213\360\343R@^#\221e\244eS@l\202\233h\t\231P@x\224\275\341@{P@kln0\n\346O@8 \217;-\316P@\374\272\207\325\035\234R@Y\335\033\177H*Q@J\272x\222e\331N@\310^\333P\201\341P@1\3763\352W\370P@\273%\214s`\350Q@\026U\310\222\003\266Q@\003n\337\370\303JQ@N\227xr?VQ@nu\306s\266%Q@\275\310,\345)0P@ \025\036\326\321lS@?\311\004\331\032\207Q@9p\346\324\216\254P@\036\372\303\275/\304R@\306\014\334\302\212\201P@|M\334\317\201\232R@\266\365\n\207\256IQ@\237\352C\204\366\331P@\260l&\232\236%Q@\371\205\337\320\017YQ@H\345l!!\003P@\230\311:\037T\005S@\313\207\370\336)1Q@\310D\374\315z(R@\223\274\233+;\267P@\240\007\343!\235\376Q@\3035\030@S\247P@\257\206\007\233e\306R@\343\367#@\306\234Q@\230\316E~\230\344Q@i\324`\271\270\202P@Z\341\024\301l_Q@\036vC\211\325iN@\241\315\362\352_(R@-\335\3574\342\352Q@\3409d\200\361\221O@*4Q\251\306wQ@T N.\270\353Q@S\365\317dz\371P@\331\325\273D\227\237R@m\243\324_\275\275N@X\342\221\232\266\262R@2\277y\373d*P@\325\353\303Sh\033N@\024\236uj\232\231N@\2219@\316!\010Q@{@\322\010z\274N@h\024(\026\310\353P@48\265\340\337\215Q@V\234\007\332CLS@\371\t\225\177l\177N@q\366Z:\253\007R@\'\350i\033/yR@\217\270tl\213,Q@j\351t\212\265\342P@y\346Q\213S\214R@\365\357\2456%]P@@\224\"=\314\234R@\224 \226\272\317JP@\217\343NR\265\024Q@+\256l^\270ZR@nU\244p\203\335R@X\035\223\252\250BN@s\242\034\347\254\316O@\2243(\251\363xT@\335\272\306^\230\021Q@e\365\342\030\210|S@\036K:\365\215\302R@L\321\010s\030TQ@\252\247\251\347\025\335R@\022\264\312\322t\362P@?\357\233/\247\334O@\035`\231W\031!R@fq\323\310c\\O@r\003\312\214{\340Q@\256\374\312\241\313\325P@\323\321N\260\035\tP@\253\330(\204y\217R@/\323\232\013\317#P@\327%-MNbP@\374$\266\255\251\205R@\r\210\006d\366\320P@S\222Q\225uOS@\010\314\373\233\340lR@\242N\220\017+)S@\344C\rY\345\007O@\000}\274T:\220Q@\225\226$\006\247=R@\\\231\211\232\r~P@\217\262\3600\305TS@\346\322Y\266\237\016Q@v\301\0345\250\203S@\275$\336\353F\016Q@\3012\341\261h\342R@b\367[\246\275\244P@\312\327 L\014WR@\014\220\247\006\n\303O@\321Gv\317z\'R@\253\023\351{\327\'R@\270\212\001p3\211Q@X\322\214\367\360\332P@\021\216jst\375P@ \223(\356qaQ@QbI\'p\267P@.\230\215\027\264\263Q@\006\237\334\022\213\026R@\260\036\206\357\0376Q@\224\372\017\016\234\206P@Ne\241\275A\250Q@\0327#\324\366FR@zE?\325\216\247Q@!\247\376\360$\330Q@\374]A\260>IQ@\273\032A) DQ@\230\363\030\363~mS@/\257\353\257[\212P@g\301zA+#P@\257Z\266\002r]R@\374\355\317\264\203\"Q@\220\274o\376K#S@\016\375g\013\371\034P@\33616>\213\341N@Fe\371!\217NS@T\016\2635B\377P@\005!\205\251JsT@\357\344\344m\005\311P@>c\254\351\371\226P@f\3079\231c\220P@\254\234C\017\036BP@\322`\n\021\354\255O@\376\r\203\241\004&Q@\202\337\036\347\260\032S@t91@\354hS@\020\213)o@\357R@\226\303\037j\337\361O@\340\366\024\3336\360Q@\301\327\372t0\034R@&;\365\342\n\231S@\310\314\3444\224\340S@a\306\005iQ\203P@\263\n\244\336\021\037N@\215\200\321f\344\275Q@\350\312/d\266_S@\361\222\227B\"\'R@8\343@53\301Q@k\312\304a\276\014R@\306\017\260\347%\003P@\372u\177oT\350Q@\257\25633\367\276Q@h(\016\004\314+P@\246\353\312P\027\203Q@\224VT\3461\372P@\\\215Vq\340\354N@t\206\002\320\210\210R@\216\237\rCGMS@=\225\377\207\327+N@@\225\275\277\033\210Q@#\231\232\205\225\177Q@\033S\255#\270\027R@\352\0365\007\tAP@\017a%\326\2215Q@t\370\315ci\354Q@\221\310\300\343$\034Q@gP\366\317\227UQ@\302\321\313\006\323\016P@j\373\256?\213\263R@\211\213c\2355cP@I:\376\256\214EQ@\237,\315\343\212]Q@$\225\317O\004\307Q@~ \212De\304P@\3722\002n\315\332O@v3tO\226\315T@\\\317l\36272R@n\002B\276\025\364O@bT\263\013P\211P@\3059\030\326Z\030Q@\274\244J$\206\246O@\037.\256\305\026\304Q@\255\260&\250wQS@-\t\342{\352\225Q@\254\370\033\222u\235N@h\036\374\345~\005T@\020o\373Q\034\007R@#\002\233\231\272\317R@\243\0374E_\314R@y%u\235\330\366Q@sxu\026\210\220R@\031\030s\263koR@6,S\346\200\321P@\373\320\367VR\377P@\034\301\270\253\220\254P@\353\034\352\230\0259R@\265\211\272O\225}S@\374\027\357KV9Q@\344\336\002\375f\274Q@\227\245D\204\252{R@\274\216\030\353\322\264N@\'\257\362\331\201JQ@\327\313\323P\276kP@tsas0\264R@\\\260\261X\233\244R@7p\025\\_OQ@\273\311Q\302\013\022R@0\203_\200-\373M@\374So\210\003\270Q@\327\021-\332\264XQ@s@\203\007]qP@0{\021\230\')R@\300\231\363s\033YO@7\007\365@\260\376S@b]Y\206\257\353R@`\346\rg\264,P@8\335\007\231\221\371Q@\224p\315\306+\223Q@\360\024\036\235\000\371O@\202\307n\026&jP@\234\360\026hP\037R@\031\334=\257\203_Q@\3426\340\3258\321R@\363>\306\002\330\312O@!\t\227\267\215\237S@p\224\362\212A\372N@\375\241\356|(\303Q@\320\275\270\322\370\215Q@\"]\037\266\202UT@j\204\352)\017{Q@\0262\262\031\267\312O@\204Hu\276.\352P@\207v\016\273\247WQ@\214l\273m!\323R@%\2319\330\215\215R@\247xNe\362\355Q@\365\245$$\230\256P@\241{^\006\241\023Q@f1\361\300\373\241S@\010\260\353\006\031\315Q@\362S\324\304\324\247P@1\033\244\314\210\276Q@KG{\217\250\001Q@\241Q\231\2418\370Q@eqi\216\302\221P@\325\023\n9!\253R@\322rt\033/RR@~O\346\3346EQ@.\301^\000\000}N@\020\037\221\224\326\255S@\216\260G\301Y\310M@^\221\035\026\254RQ@\273\302\215\372\033\274N@\356\262\207\365\247\347R@$~\224\373\222\222P@\310\250\025\231J\216P@Cw\232lb\302O@7\355\254\327\212XS@\021D\rc\217}P@V\2431iY\366Q@\000o\273(\004\007Q@K6\303\003\377\273P@\2234.\357\325\333P@\263\201\201:\r\323Q@\227\253\203\311mwP@\234\326u\327g\277L@\250|\266\266\314(S@\222 \2745\234\006R@\246\364\255O\313\374R@|3\212?}\007S@6t\214|\214\242P@\256q\020\314G2P@$\224\210_7\241Q@$\334\n\013v$Q@$\277R\340\306\202R@\000T\316XC\017R@\n\351o\tOuQ@8\257\330\220\253/N@*\215\027\257a\234P@\256\320\030\371\201\014R@9\211\375/l\004R@)\317\367\327)@S@\023\207z\240&\216Q@\353\rG5\363\206P@VP\3219\352\017U@\200\235\326\024\r\025P@5\'\253\214H\027S@\305C\360\324\351\222M@\372\347f\265!\331P@\010\317o\366\271xR@\225\016\353\251>\245P@\223\231pD\026\352Q@Od\310\024@\233Q@\254x\037_#)R@M\037\026\226\247\262P@\323*u@\030\336Q@\2102\242;\376\014R@\222\233\250:\377\020S@\366\001\312\300\354\373Q@\341F\371\361l7Q@\003\361\276CP\271P@oi\340\2622\272Q@\246o\026a(}P@\330\225\202\223h\'R@\355\377;\273\356jQ@g\243\335\t\\\223P@B\300\036\3062bP@{4<h*\213R@\3542sh\274MR@\252\n\016O\3071Q@W\370\277\250\346\250S@(qNw\233GP@\201\327\377G\267GQ@\350\250\226a\250\263M@\327Q([\336\303Q@\264w\276\270\311\356P@\253\216\207}\301`Q@\277\263\310[\3503U@\204\0148\331\026LR@\247\203Q\354\322$Q@\323\225wnjrR@\336\324\257i30K@;\363\267\321J\003O@\031\241o\373w|S@\352\366&\373\032\205P@]=\022\014\262*P@\222\256A\364\004\350M@\023\306\244\212!QQ@\177e\261JvqS@\214\342\257\316\376\334P@\242h\207\234\377\273M@\230#\t8{\273Q@\351\323\254\263\313\302S@j2\365\030\334\276R@\353\331\'\324(ER@\347^\266l\370\277R@\256\262\036\t\234\202P@\200G\355\364\277\022P@\336C\263\004\260kO@\202;\302\217\022\031Q@\302z]\023\356\324R@\346\274\254?\2124R@V\003I\350eyR@\224\364\253v3\221Q@\355>\326\230#)Q@\346|\335U\340\214N@O\200\302$\222\262R@\347(\307bW$Q@H\354EZljS@\'\014\302[\357mR@M\312\006\000:bR@\300\203\215\003\325\305S@\306\207\306\177>\241Q@\350\3056A\274\315Q@\234t\225\2124\005R@~n[\224U\265P@r\253\002m\217<N@tA\317.\262\223P@\026\256w\010\262\322P@\346\023x\336\271\321O@t\315\3456C\206S@\347\212\312\017SKR@\332\351xA%\340P@Q\370\366\246(5T@\013\345\316\3471;P@\002(Y\021I\225P@\222\2726\272\002(Q@.\327P%\372\276P@\217\013\n\371\177\253P@\323\226\321\360\246)Q@C\215 \020hHR@\200\3153\367N\265N@\230Lo\274\271$R@W\367vR\216\013O@\203\275X\231\264[R@x\3319\037\335&R@\367>F\215\266PR@e\363\216\200\312AS@\245\025V9\335\334P@\361\314\005\376\020\302Q@`\27425\305\334O@\270\257\301\222)\220R@\226\301\\\027\365\020Q@\340m\350\210g\237P@\372\204\332\247\257uR@\215zz\000;\204P@t\3376y-\010S@\327\262>\025\017\211R@/\332\316\212\321\002Q@\254#\016C\020\275Q@\211\363\305)\332\375Q@\312\363#p_\242P@\024\034\335y\330\020P@\002\te\373\225\200Q@\337\013\270\270\2606S@\330(8\322\347\023P@\267\305\034\256Q\326Q@\216u\254j\361`R@\264P\206\372\2320T@s\223\231X\243\331P@S\\@.:vP@\324\355\030o\375\244O@\374w\t\321\005\363P@\027\230\250\333H\321P@\000\220\231\275\322\353R@\244\212\317^wyR@\357\375`\377\332+Q@\\\326\352\375\027\357P@\265N\367\037a\320Q@\020\034{\002/\003R@~\014\344\274\320[R@S\006+h\236%Q@\322\202\\;\224\323R@*\t\254\035O\371Q@c\341L\342\265\001R@\262\207\rM4XQ@=\371\021\010\233YS@:@\305\377\322\000S@R,U\212.AS@\013\003\205y\321:R@\365NA\321\243\236R@q5-\303U\267Q@\014#wG\372\335Q@3\323\263\3435\222O@1/\261U6fS@>\005\276h\312\256Q@4\326k\032\245aR@\356sU\225+\310R@\232\256I\\\316\"S@|\345\326\306\224\017P@\335\276\211\321\373\215Q@\330C\247\025\370\311S@F\271KVm\213P@3S\"\322\313\236R@8o\022\021\2247P@O\215a_\212\306Q@-\254\212\225zGL@\\A\276u\005\253R@f\037\271V5QQ@\255\243UhD\241Q@\024\241\343\'\253\226T@\324C\344\351\243\327Q@\326Qjc\256\276P@\3617\225A\"\363R@+\221\200\310\277\262R@\350\322\312L\362\013Q@\333e\264=\374\324P@w\031\240\260\336\251R@\331\3776b+uQ@\321G\033\311\232[O@\363\007\366\305\315\003P@\276\t\030\302c}R@0\307ED\247\313P@\334\222\354\245\202\204P@]\r\326ZY\224P@le\201\277\024\243P@\375\255\246=\205\332R@?N~>,rR@\245\3038_\226*P@gd\243\324\274yP@\013\325\330\344\000\010M@\035\335n)\224\013S@k\254\242G\2408O@\313\0069=\227PM@\334\"&\210\246\034Q@\016\340\331\345 ]R@g\351\316\205\302\033R@\374\241\365\343\2002R@\202\207g\027\2204S@\3466p\265#\306Q@<\031\262\250B\205Q@\003\300\347\035\216\017Q@Q\317[\374\227\010P@l\323)\335\305:R@W\320\016}`jQ@\354q@\363B\274R@e+\340J\361\351N@\025\3703\375\004\306Q@\025l\006\236\355zS@o\277R\205\332\326M@\002\320\317\002\227\200Q@\274\365\260\307qfQ@\305\366j\030\343SN@Xz\271\031\'\325R@\271\303\227\313\227\301Q@\330l\346\357\301\333Q@2\265\222\004\014\374Q@\\\351\236\371\207\314R@\330\321\010R\037\312O@\t\351XAf=Q@\366\376\216\034\212\311O@\004i\376\017\035\372P@\2039=\325\312\205P@\271\013\030 \212\272O@\313\217\224\341\023\265Q@sl\227b\343!Q@\332U\226U\312\364P@)\374A\006\' S@e\004\'L\014\001R@\332\320M\221\266bR@\0273\354\013\360vQ@h+\364\177MCO@X\314*N\214\333Q@\314\366\346\273\2719S@\351\3238f\330\005O@\306_\325\003\362fO@\246\271\016%\261\335R@\226\006T\213L\006Q@\036\2555\203g>Q@\306\005\317\037\246\305P@\335\032\252\332G\217R@8\026\233{\310IP@\2474\301a<JS@\315\035\371\241\371&R@\211\3745\245\224\tQ@\330\254\223\236\036\320R@^\322\353\306a\nQ@\251\271\326\036 \357P@\001\300=]2\332P@\343>\304\355\324\210P@nj\327\013H|N@\247\226\ni(\302Q@\225bg\006\312\223Q@\017\004V\371X@S@\035\330=\021\206VR@e\247\360\363\003,P@\267]\215p\271\304P@,\254l\253*\206S@7\316\346\240\326,R@aj\367\303\232\254P@\221\206\315\265\337\220O@\010\337,\037x\221Q@\253\032\231\314\263TQ@\312\0008\342[<P@On\367^\220\rQ@\271\204\023\032\'\332R@\\\021\230\273\021}R@\264\367\223\2458\343P@ \3531\351\330\030R@\242%\014\321\322\225Q@\240\377b\362\250\342P@I\022}\244f\355N@\301\025]:F\014U@\010~B6\253\227R@U0\0216[4Q@\025\363l\335S\371N@\246#\204\334\340\246P@\202 \360*\276\370Q@M9/H\346\271Q@\363\201\301G6\216P@\320\220*J\357\232Q@\237\267\027\220\n\010Q@\262=Q\023TEQ@@\305\304\265p`P@D@)\225T[N@\270\010\\=\234\215R@F\2613\207\323\225R@\220\272+*\210\336Q@\003\317\341\277O|P@\377\333\232\037M]P@T\277\3479\340DR@\223\307\223bH\365Q@k\266\217^\276\223Q@.\265\255\005\314%R@\260?2\263\037\263P@\336vw\037x\360P@-0\217U\333\375Q@(H\272q\225\"S@\345\313\013\007\352\304Q@\211\242\330\221,\312O@\266\360AYe\304S@\216w.\217\234\266R@b\371e8\230\372Q@_!\211I\'\000P@\222\267\306\357Y\272P@+\320V\361\251\341Q@\231\021\300\261\247ZQ@a\320J\231\260\307P@\304~%\276\202DR@\273=\224X\255\307R@\363\010b2\037cQ@\217|\366M\004%S@q\0075\030\213\300O@M\362\356GG(O@7\010%\314\013\261Q@\341\\KX\264\036P@@rEx\347uR@Q\023\201\345^\246P@S\'\265\004\364\202O@3\216\346\0243:P@\307\"\344W9\331R@\240\250XU\\\021Q@\035\227\306\000<dP@PAL\260FxP@\0060\327<n\373P@\205\301\027\357(\365R@{\254n\364\037sQ@\375Bd8s\301Q@\331V\314\"\314\333R@rS\373\2557\304Q@aO\030R\000\270M@\330\217\311\351n\031U@KX\312\240\374\342P@x,<E\223\006T@\323\t/\330\3357Q@_v]\034h&R@\374/\246\313\275\213R@}\326.4\362\303N@\220\261\300\220\274\360O@,I\340\244\262\213R@\030\230\256\225\222hQ@\347kp\273S\221R@\217P\212p\374\351P@\303\246\267\351|7R@\315\"\374F\323pQ@\272\235Ib~4Q@\327\362\313N\3048Q@\257C\3711\2417Q@\267\253\233\241D\354Q@\202+=zj\376P@@ \236\352\r\013R@\000\245\304\255\377ZR@\315\205\263\036~cT@\371~\354c\261\017S@\320s\347\310\237\331Q@t\320\371\365\303\261K@\324\240m~\260\342Q@L=*\242YKQ@\005\207\034\326\224\356Q@\225\331>\236^\323S@w\375\233\265=.Q@\255\323\212\r\255\266P@\335\207\274\213\031$P@\215\302T\352/\356S@\200\005;c\016\257R@\206\353\344\271\264\036R@\264D\226\312p@P@\371\340\345_<\nT@\322\330+B\336\213P@\016\321-R*~P@\037\250\250\231\302\242R@\031\013 H_pR@\377\022\330tw\272P@\317\272]9\242\tQ@a5q0u\020P@\276\370Q\331]\036Q@ \343\243\007\227\375P@\r\262\234\352\303!P@\007\267h\303\265\322S@)\364\230z\305\240O@;Q\227\223B\350P@~0o\2679\214P@\2621\263\236lQR@\317\024\020\034\361\025S@\006\260\310-\363\214R@\300\025\333\202\311{P@\231\313\227\023\221/R@H\214}5\016\274P@ \023\020\372\322\370O@\204\311cb\366\030R@\274\013\302\343E\312P@\344\313\373\335.\nP@\233\302B2\303xR@\007!@\367\262\010S@U\255\306\312\310*Q@\360a\355\343\334\240Q@\350wn\355\001\025R@\263\222\206\002\017\301Q@{\006\316,\205\265Q@#\321\255\013\251\342Q@\215ki\\j\032S@\020\177\350;\0005R@E-2U\376;R@\333\305\237\216\250\222Q@e\320\352\232\300hR@i\227\033\000\237\324R@~\343\037\376\343>P@_\243O\241\242\245P@\200NS\013\275\367Q@\334\260>^\035\354P@\037!xP\352\372P@\362YV\354nGQ@\365S\367&\361\335Q@\375\002S\236$\020S@\314\320S\205=\271R@\234\202\202[\246qR@\031\020\016\275\037\315M@\315:\021q\217TP@Myv\034V3R@!\344?K\0109S@*d\034k\377ZQ@\'\362\230\'\030IQ@\002\206\017h\337pP@@8\303#Z\361Q@}\035\335\202V\250Q@\332\212\302\321\306EN@\311\216\037\r\216\365P@2\201\257`\345\277M@\030S\230\303\322<P@\365\305\243r^\363Q@$*|^\263\334Q@N\301\205\310\332CQ@\360=F,\307|Q@Q\224\277_GxS@\001Q\230\234\3461O@$\342\373\351\312\025T@K-\263\326_\201Q@\"\266\266\306t\221R@\217J1\204\272wQ@\211)c\367\246aN@\204\357\"\221\274\254O@\334\374\010\354\033\362Q@W\375,WW\234Q@\376 \310\354\222\036T@\000\377(\257\316bQ@H8qf\221\200S@\236G8\247\360\374P@Mv\331\351=\362Q@_\305q\261L\241R@$\336\032\327\'\032Q@a<?\n!\276P@\206\334w<\002\333Q@E\371\326\'EXS@\344\364\265\021\233\323Q@%\247\023{ZjQ@b\021s\000\034\017Q@X\2556#t\375Q@\333drx\244\215R@s#\354f\246\252P@t\203\036<\250aP@K\206\370\010.\231P@\346m\024\325\n R@&K\025F%\366O@\346\205a\272m\235S@\254\010#\270\352\243T@qb\rQ\345\213R@\'\365\344\225\247:R@\242\305J\321\343\034Q@ 5T#\313\201Q@Z)\344\366S\355P@\274\010\212uKaQ@\014\200(\213T\330P@1\272H\230\354\301Q@\335\205\013\262+\'Q@$\013\215`\241=R@\365\272\367+\2028P@\016\336l\026\031dR@U\261\263|<\005S@f[Z1R\352Q@\"\362c\267\320\264R@\363\341\001\326k\036R@\304\347\240\374c\271P@l\333\003V\332cS@\013!\205\t\355\232P@\014\035vp{\372Q@\357h\026\232\377\333P@\300\002\346\347\237\tR@\273\013\303\r\242\307R@[\241*[K%P@\033\263>,{dR@\362\377\251\234\"\262P@\t\220D\341x\331Q@\215d\253Hx_S@t\262$\206\317\312R@\220\010\237\302ZQR@\264k}v\025\270N@\316\263\006\374\"\360R@v/;{\246\214P@6\nd\027\223\032Q@\354H\330L\312\253S@\311p>OAgR@\362I$\252)\300P@=\024\246\026\217<S@\225\034\022\327\270\243Q@g\265\302\023\274\024R@\241lG\360\244&S@Wh`\374\2660S@Aw\241\355\247\222R@\227\001\346\320\201)P@i\007\244\024B\214Q@Z]*\333\254\360R@e\027$\205\217AR@j\341\264\265\230\210R@\'Gc\350\007\353P@\'\265\177\033\r\002Q@\363\022\243\213\005\216P@\001\364\236\21299R@\202\376\315\371\023\303P@\346\242s\017JiQ@$\375\325\036C\333Q@\240\322\201\370\251\270P@\255c\rQ XR@\352\361\321Jg\331O@\330\036<\224\244\255O@\344\364\031d\233\366P@$-\253\t\325OR@Ao\301\204H\021N@0\255o\"\313\317O@L\222-Z\366\372R@=1\252\035W\020P@\364][P\260\033R@\0332:\n1\273Q@\311\333\025P4\327R@}!\"\345&:R@\010\020|\005\243\034T@k\237y\244p\025S@\236t\341\n|yQ@\373|VuT\272R@\341\211\345U1\235R@V\354\031\376]\000Q@-\300c\211\214\000Q@9\314-\276\337\016R@\004#f\343\212\204R@\234\\\027\236\375\323Q@\266d~~\025nR@\214\300\016\367w\353P@\370\342\213\363\373\300P@F \004\321\265BQ@cLp\223\255\262R@\034\204\242Q\355\367P@DVO\342\340\235Q@L\267\373\205\333\003N@\033\001\311\306\341\232R@\372\213\004\350-kS@8\215\266\200\362KR@[\211\223\354;uQ@]\255\261\202\017\266R@:\005\360f\377fQ@r\222\234\014{]Q@\253o\315\276\221\274Q@B\306TQ\220\304R@&\365\361T\034\241P@8U!\223\302\316N@\261\032\232L\257\320S@90\352\220\215\311N@\213\375\037Yq3R@U:\n6\371GN@\316\256\265\260+\233Q@\263-\255A\357\036S@\325\316?\306\0052P@D{\204!\304\305P@d\030lqv\207R@V\023\344\302\027\020T@\036?\363/D$S@\275\326:\242\2442Q@\034l\243\253Q\230P@#\254\262\305\261\232O@6\300\343\000LqP@\325\025\327{2$S@\202\223N\301\3065Q@Bs\253\200\311\017Q@\330\240U\336?\010R@`\262.\261\017\322S@\346X\026\220\324\204O@\022\257\321\350S\037Q@\261\371M\346\306_T@\306\346`r\364nR@\223\275\014\035m-Q@\223\235\3019\3302T@;#>\211\243\236Q@\217\313\234\377\223\232R@\241\034QM\036\263P@\3159\216\225\245\004S@\213\314\250\004~\355P@\235\277\030E\\\026P@x^\257\031Q\000Q@\211<|#\260\010P@]\351\303\256@\217R@\017\225`Ys\224P@\370-\326\361\337\301Q@A_\215\303vGR@\233\230\244\022u1P@\0131\217\341\255\221Q@\266\3566\225f\027R@\322+\240\030bbO@a\365\370k\337\262R@\321I\026\323\301eQ@B\343-\271_\030Q@\225\262{R\322\256P@z\370\007H\357\230P@\255\032\346\004\304:P@\361\274\232\345;\tP@B\234\253\025KFQ@\335*\322\004\376lQ@9\337\351oJ\006R@\344\242\365\002\2671R@\351uF\200\340\030R@\\\306u\313OWP@R\252\305/\273\363Q@\215\303_\020G\026Q@wqI\007\207\325Q@}j\010s\354\'Q@\214\277\330\321\354\335R@K\360\341R\222\022P@\273U\007\300z\266P@\353\305~\212z\252S@\023\212\230\302~tP@\306.+\312\336\362S@\0223\343\3221\363Q@\262\260\233\265>\210Q@m\342l\0067jP@\367\330\207\256\364\023P@PGYb\210\235Q@*\201:\302\211jR@\2703\363\207W\343R@\314\222\212\254\363\253Q@x\037\17779vQ@%\260Hv\3409R@l\037\3211\177\010P@\260\262\375\001B*S@\236Fp\n\331\355N@\230\351\333ds\261P@@0g2\277\333R@\203\325*\273\272\330Q@r.T:J\253P@\373 \207<\237\222P@t:\365\336\245FP@\250\027*\225-lQ@#\242\342\206\340yQ@\')\224\371\3613P@\022\254\267t\353\314O@\332\nqvy\\P@T\305\253p\232\375Q@\235\202>\323@\274O@\026l\314\335\374\366R@5\367\253\237\245\206R@T\203\031\340i\232R@H\304;\367L\313P@\211n\304GG*P@\204\355?*R\336R@w|19>\267P@\020\346%\217\276[R@\332\373\342\227\321>R@\334\034\326\222\240KS@^\356\240\233\004:P@^k\316+B\030Q@\026\224y\\f\205P@H\001TsmPR@_\322\254\200a\257P@8\343\017\317\016\361O@j\003N\216\200\320Q@y\250M\237bqQ@[\244\212\036\203\346Q@\330\236\362\347\310\351P@1\022w\037q\273R@\322z\030\024DYQ@\372I\\u\373RM@zF\"\207 nP@\002fK:\233\037O@\010v}\374A}Q@B\016\3269\246\265P@\357\237/\256\216:Q@\242j\037\313A\007P@\035\024.\326\3623Q@\224\332\223H\037\253P@\337\375\260]D\347Q@LQ\307|9\370P@T\245,/\315+P@V\311(\274\256\'Q@u\316k\260O\360P@\362\245\000\226\213=S@~\321\2552\322uP@\316^CJ\035\214R@8\225\347\231jcR@\214\201\266\244*0Q@\264>\0236\034\322Q@\\)\004\030\021\266Q@Y\256(e\014\264R@;p\245\364\250MS@)\373\340%\275\031Q@\225rN\360n+S@\240\373\223;s\004Q@\314\344\350\252gpQ@\261((y.\001R@I\306\246\030%(P@\231L\206V\206lO@\227\361T\237\030\360Q@\311c\336QF\336Q@fB\020\3421\220O@\"R:\264\036\336R@T\300\307\355\n\346M@\377\"w\3624hS@&\217\245\025\250\244P@t\177E\272\030tQ@\362\031\343:E\036S@c:F\242 \213P@\241\340\310.\300\211Q@\275\200\001\204\332\373Q@n\337\020\366U\320R@\007\355\324\361\257\227Q@n\034>\267\235\330Q@\222\215\222uB4R@\361\036\'3\300\317P@\022\203\273}\364\"R@\245-\207\016\2552Q@\321\314\271\016\333\310P@\352\302\005\021|ZR@f\341\033\323\324?Q@\232\n\023 K^R@\224\364\360\241#\227Q@G~B\262D\035Q@\313\255v\202\333\251R@\321\312\265\253\034]N@\003\211$~\006\236P@\034\260$\361\026\001Q@\377tODS\016Q@>\235\313I\333\341Q@\322\010\341\323\336jP@A\351\346\247\353:P@yb\005\351\245\037P@B\034U\213\220|S@\275\336\027\222\257xP@*{X\331\013\306N@\216y\3017\243\320P@5\253\363\0329\264P@\230_4\261\355\341P@\244\030[4\002\007Q@I\324\351\231\203uP@\n\275q\035\223\361R@\336\007\222\240\256\257Q@8\275Lo,\"Q@\220\224\311\221|\373P@\364=s\312\376\032P@\303F\035\336\013\336Q@9\033\303`\363{R@\262\037a\261\320\301P@\251\0211:\024JO@\276J\037^M&P@\323\033\024~$\267Q@\036L\206\277\036\274Q@[2\020\031x@P@\322\200\017\006\327\261R@\024p\216\177u\342P@\233-\307\322\376\037O@\365\246\234\023\361\240Q@v\271\353E\\\335Q@\302\323\312\223\007<R@\310\377\241\342\233\257P@\232\265\236\262\250cR@\267)M[GXR@\347\376Uu-\276R@\257\026\377\200D\317P@\275\247\036\367<`S@\2245\3628\301\307Q@\206\270\351\032\371CQ@\271\372gS%\311P@R\000\317\257\302\307P@\306\357\264\032\335<Q@\376.\t\337_\367Q@JF\357\001`\217R@\236%\276B\202\304Q@Z+F4\265~Q@|\033Im\215uR@#\343]37\335Q@U\254F\0260+T@\002=\340\026\006{Q@]&Rr1\314R@IS\016\037\210uQ@\035\017rAB\337P@8\224\200\"\364\320Q@bm\207\316\010lP@\337\210\315\217%\274S@\202\2320\242\"\263Q@\320~n\255\273JS@=\336\034\334\256YP@\003\275WY\314wQ@\002\017\245\364\021\254N@\253u\273xD-Q@\325\362\023_3\250R@\253\004J\006\0146Q@yk\317I\372\337P@\326A[\351\335\241R@v\215;\n\213wS@\006\313\020\334C-S@T9B\221N\311R@\243K?\300E\377P@m\311\277\341\316\230P@\033#\001\016\2709R@\272\310\216\316\317HP@\031a3\031\314\276R@ \021[>8NP@\370\244\"\201\270\350P@\3562\317\021u\037Q@p\377\360\227\265\\R@\204\200\232DC\007Q@\305?\310\262\275\033R@U\271\271>\362\306R@\331\320\026u\317FQ@\365\376\355\261\254\301Q@\032\033\000\315\346\024R@\343\376r\253\272\323P@\253\337\3345$GP@L\352\312@T\034Q@\220\215\2034\326\377Q@\341I\314\252\037\325R@\315\331\014a\225\020Q@\311\264\274\260\274\377P@>v\302)m7N@\370\305\332M\267\002Q@\201\315h6\336+T@J=\310\010\177\361P@\364\030\201\355\273\235R@\260\200\007\212e\002S@\212g\242X\317\024Q@\367Y\217\3733\376Q@\025\031\314\220\360\"P@Q\253r#\235\007Q@D\260v\356g\374Q@]\364\363\014\346\371R@\274\317\321\240\372iQ@\242;\333o\374OP@\252\332\014>\373kQ@\357w[\361\'\277Q@\306\344g\025\351\252O@\010\001\177\246\331\212S@;^\225`\261\377P@\335\210\212(H\251R@)\250\350^w\250Q@\2033\215b\257\377P@\237\315\03377]P@\344o\202\326\242\305R@\272C!\037\324-S@\331\367@\031~\255R@kX\303\317\241*R@\327\200\232w\277\216Q@\3076\310%\210%O@\304*?u\215\203R@\036\234U9\313\013Q@\230\214\334\307w,Q@J]@\314-\341P@\023\205\376O\013LR@\362\031s5\3519Q@\000S,\3532\356Q@\253\260\250R\333MO@rAI\016\254\222P@\307{Z\341\3757P@\357\313\340\2312\274P@I\306S\276\020\237P@\212v{\231\0166S@N^#S\310\304P@\006\034\221\017\377\222Q@\221\342\263z\220\\P@\332\010\377 \033\370O@.\235G\010\306\315R@\'\332H})lQ@o\305 gf\266P@\334\222u\272Y\204Q@v\013j\276\030\263P@O\215\220m\316\300Q@\337\'\007\267a\235Q@\251\233[\202\371\271O@\205;0\334]<Q@X?\"\033J\244R@`\030\n\304\306\372Q@\264\237&.p\270S@\010\263$\314\323\240P@s\355\303\337\007\231R@\206\257\370\237\303JR@\355\331\354\274\037\230Q@\201\370\365\371^bQ@eP\363\224)BS@\216\177\367\365?cP@\340\226WBe\372P@$\002EWs\277Q@\362#,\035\275hQ@M\323:\341U\302Q@.\004\276B*:R@]N\330\355%nQ@\005\322pr\361\353Q@\322\321n\275\325\nS@\000\221\010vT7Q@\000a\307P\200\225T@\336\2620\002\275\347P@\306\035\026\"\\\341R@\325vJ\235?\350P@\t\007\303_o\264Q@\376R\302\345\237+R@\r\236S\233\356\207Q@|d\305\306]1Q@(\341\036YS\270R@z\2420\003rRR@\202]nY\273\263Q@@\237\366\000|\025T@s\262\235\244=\007Q@S\320\023\350\000\000Q@\341\310L\353/\324P@\215\327y\335\016\023Q@\002\037\023\307_\255Q@\354\322\023c{CO@\207\3304\035\\rQ@.y)D\035\020P@R\376\225\277F\233Q@\301\331!\242\233\300R@2\nc3\227-S@JaI!\363\340O@\002\307)\001\371\310R@\021\322\241;\017\257Q@l\376\317\232\375\244Q@\2239J>\234FO@c\203\035\247;\333P@\375+\203.f\261Q@q\344\325\335r\252P@\352\2521\350\374\367Q@?\354\267k~\020Q@\207!\235[WLQ@p\266\345s\022\320P@\362KN\307H\343K@zx;e\310\212Q@\306\202&P\241\354R@\321\343\005|[\'R@\rJ/\'Y\230Q@\006\335\357I\265 T@*!?]\263&Q@\225~t \342\273Q@\225\244\250\302\326$T@\2039CI\245NR@*\231\010*.\200Q@\351\275\2545Z\211Q@?\025\217S\213TS@^\355tN\006wQ@\340\367!^\230\351R@ij\376\322 3N@\260\356z_\311\256P@A\213\305\273\266\237O@\277\006\371\270\244\322L@\340h\022\tACQ@ij\361T\333~P@\372\221\030\365\240_U@^b\261\345\314\215P@\034Ubx\021\326Q@Yd\274\247\367jR@a\226@\325\371\201N@CP\340\250E:R@1\207\030[\260]Q@*_$@\3233S@\304\031\264\347\301\230O@/\237\021u\305\262R@\207\237\324\236S3P@\2566\210U\223\014O@\310\314\201!\006\214R@\352o\217\266|\244Q@n\035\325v\001=O@\342:4\027\234\"R@\275z\343\205LnP@W\341\372\201\177\271Q@\320\215\373\213q\207Q@Y\037<\346\010hP@i\265\222\240\021\327Q@\246<\372\356\311\231R@9\253}FY\223Q@]Njx\275\254P@E\354f0\322\364Q@_%\342\314\264\262R@Jas\366\375\253Q@\215\017\t\213\270\231S@\234\220W\017CvQ@\372}c\327$\240M@\362G\026lM\022P@\267\020\244\200\214-R@\\\340\037:\310LR@v^\271\265\n\253P@\205\314\235\3719_R@q\236\300\316/`S@\251I\265\004\321\315P@\237\232S\005FoQ@G#\261k\336\324P@\225\266T\3447\337R@\037\204\237\007\262\002Q@\007\352v\n\343&Q@\315V!aI\257R@\217\202I#\224_R@\221(ut\337\364P@u\215Q\330\270\323P@P\001\370\235\253\347S@\202\245\201\206\034\264R@\204\300\361O\250\372O@\242V\306?\300\032Q@*\330\352+\210\nP@\334\306uU\345\245Q@\026\244\211\226\001\222R@\022o\226\300\320\223O@\337b\235\201\314\204Q@\222f\200\006\305\370R@\244\233k\327X\232Q@\316\263\021L3\313P@]Nf\311\223;Q@V{%:S\254R@>\373\365\025\312zP@\320QO\313\331{P@\366\350+H\260\264O@\026&6x\255ER@G\203\265-\n\336Q@\307\313\330\215~cR@\350x\004\"\254pS@\320n\270\'j^N@B[\243\246%\007P@\231@\346\247%\344P@\034\216\240\212\376\340O@\376\212\034\300[\034R@\177\241\253LUyR@\315\025hn\257\357R@l\216\004bB\330P@\217\342G\364!\337P@\212kv\377=vQ@a~\363Hg\354Q@\325\257W\210\217\236O@\377\214yE\017JR@j\270x\201\243\354Q@3$\210\200\007aP@5\340X}a\253M@a\207\330\202\303\222R@r\266\247\257\030\207Q@@z?<\017;Q@\260\305\030x\241\220P@\340&\245\220\2135P@\352\313\301\273\201(R@\257]\\\332I\245Q@\340C\264j\264\333R@\214*\023\357\022\014R@l\252\017Q\265:P@t\375\366/<TQ@\007\266\361\r\353\021S@\331+\266|G\362O@Q0\366\324\341#N@\332?\223\357\340\324Q@ \326\202\321\316nR@\247N\203\324\273\233S@\304~YR\326\361P@-z\225-\365\003S@\364\262i,&\007O@\2407\206\317UoR@f\356\n@\301JT@\214{*\021J\305O@\326\356d\240\337 R@2_\245k\227\232Q@\'\253\253\035\300\336Q@\231\234&\243\251\367Q@\367\204\305\255\342\254T@D\026\007_\371+R@\205\302qhL\032R@\355\300\006\213i#S@\250\"\275\003pGQ@G\177\264,\010\270Q@~\241~-6<T@*]\206g\010uN@\204Aj\272\272OR@*\331}n!\224Q@\360\311\337\\\321\206R@Y\241\223\354\017fQ@<o\205\233L\002T@;\314\240\006+\313Q@\337\016\267h?\326Q@\206#&\272\007\343N@\001\363\351\206\232\324P@\327&\352q\232\233O@\305\212\310$\251\211O@\246\342o\375\246\'T@\361\352\037U\306\371P@\371c\252\330\322\022M@O.\211R\206\243R@\217\306\360\340%XR@\330\243\265\237\235\201P@\\\"3\247\3325P@\027\307jYw\355Q@Q\025\035\302\222\314P@\357-\200\315\346\373O@@\350)\032%JP@A\322\237B\245zQ@\301\311p?\321\351R@\363\261)\276\r\220R@(\205\204!\262\323R@\253\021\302\227\356mP@\3222\022\222\236`P@\023\024\033\305)\334Q@\363\236Y*\317\266P@\341\252\205\3005\312R@\276\370\333^\200\033S@\206\362\371t\231\315P@\035\376/F\221\262Q@\216\251\326\335N\237Q@\224+\347\352\216:R@L\225\363\332\271uN@\365#\242Y\273\261Q@\253\355\235y_\356Q@\242\252\335h\245\244Q@\256\365\333\312\350\"P@Rd\021E\302\264P@\2738\245/A\363P@y\367*/0jQ@\322hR\021z\235P@\252&\340\245\372\236Q@i\034R\t\020WP@\332\036\330\373|\220Q@\201\010\330\240\256\317S@\350\307\272\310n\014R@k=q\3174\025Q@\3634\335\177\253\025S@\200nz\375\341\256S@\321I\362\232)\021P@\002BA\374P\013R@\272\023)\361\0053Q@[\275R[\273\253Q@\221\354\220\265jxP@\322\r\330O\261UT@;\3736y\006\035P@\001\0341\245\206\337Q@AU\026<\231\331S@\356/8\222\262\202S@0u\001,\366\001Q@\001\273\007\037$sR@b\022-\237_.Q@x\032\216\225\267\256P@z\267\342\036\n\272Q@\304w~\311\252\021S@\351\265\236-\321=P@\227#\216\367<\302P@\003\365\231C\200\305P@\252\002\313=!\335M@&\"\340f\240pR@\272\224\036\336\257\253Q@\034\200\265\020\325\354Q@c\237+\014*\266Q@w-\373\277(EQ@\225\322\271U\366\234Q@\"\272\331$\227\275Q@\363D\312T\225`R@\216:\034h\220:P@:d[U\334\013R@l\004\314\317\007\303Q@\007\210\245B\212\303O@\363\310\305\034\241lQ@\241\0108\306\226\250N@\231K\217\005\tzT@\342\274\305\362\006\014Q@Y\304\206\325JKT@\335\341\031K;\327P@\221c\376\031W\330Q@\371Us\317\021\367R@*\371\322\230\373\201T@\275\025YF\234\203R@\252\013\321\312\034aS@\316\252\276\263Z[S@\345\246\375\233;\262Q@\250\357\334\247\265\361P@\323_XL7\'R@\313lE^\213\035Q@flE\352\331\315Q@L,\255\265(\326Q@\021\306u\354\217HQ@\276\234\261\025EET@\267aM\027z\370Q@>\301R7(lP@_X\351\276\344\007S@5\242\2756\243\224P@e\244\207\353e\207Q@\362GX\312\311\361P@\301+WJ\350yP@6\334\266\320y,R@)\244\316\274rZQ@\304\206\223\355\201\004O@\023Gtv\3375S@\224\370\236\256\216\206P@#\035E\253\307gQ@\234\222\206s\363fQ@e\315\207D\340`S@\177\342\236\360\341\201R@\3079\256\001\222\216Q@\213q\361\376\361\200Q@\223TW\232\340\232R@+<nW\\\211P@Q6\230\0221]Q@\341@\270G\232\220R@%\017\004\356\345\036P@\227\203\t_\301\024R@lX\271\255BDN@<+\222\263\243\222S@V1\311\212r`R@$\245\334\210x Q@[\350\240!N\203P@\n0\005\301p\203Q@\246\202\264\270\373\276P@>\264\315*\250\373P@\007As\362\324)R@CL\001\313\0242S@\231b\320_\310\016S@Q\242F9\327\271P@\021\245\376F\232\373Q@N\006-;y\221R@\2737\312\016\250\244Q@\327\201\252\013\207\036R@\242\003\375\307(\333S@O\270\267cXsS@\321\310\326\341\367\310P@\035-\234\200\271\374S@3\337\314\370w\376P@\340A_\362>\252P@\014\276K\3403yQ@\211\\g\354\322\354P@\035\243\312\0309BQ@\027\320\235!y9R@\277\035.\317\210\020O@\233\212\367\312\004qR@I,r\004caR@\223\r\276\202\\0Q@\233\002\031*\'\253P@\224\005IO\242\240R@v3\251\2415\030P@^\014\345\017l\230N@\3614:\013\300\017R@\366HG\355GyR@\320s\205\032\342\224S@\'f\252\233\242\230P@\344*\270\340\326zQ@\207\016\307\337#\206S@\000\360.\022\251EQ@\366*{\2206\337M@E\337\361;\246]Q@!\364\2613\377WM@\263\2353\0315\236O@kj\341\215\277bQ@*\203\266,\336\224Q@}\353zq\202nP@r\"\334]\375mQ@k/kl?\215P@\t\375\177\371\207\336P@$\333\205\355\325gO@\300\246\364}\256\242P@\276~8\003\334(Q@sB\\\024\307\351P@\206c\035$\305\370P@\017\224\000Z\253\347P@8\211\325J\\xP@\274\032\2264\310\003R@\013s\324.\333\020O@\361G<\316\3674N@\3546?z\3611S@\343\030\023{QjR@\375XB\263\334jR@\276\202\277\252[(Q@!\024\225\371\327\230P@e.\030)\314VR@\352\206\036\t\302\255N@0\250\254)\002\363Q@\030#\3604\227\333R@<\251\000\267\3455R@L,\274$\2544R@]\360\326\271\360*T@\027{\315\225{\023O@\246@\222R\002\\Q@\237?f|%\177Q@\214\34535\352\327Q@\220?\277\254\002fP@6A\205l ?Q@\213\356\303\n\267\021R@\261\031kM\261-Q@%hYH\210\242Q@\333\271\317\305_\031Q@\025\310\272xk\251O@\342\322s\254\3632S@\033?\010Y\271RR@\240\005tHo\353Q@\021Z\035\236xXQ@;R`!OIR@2<\023T\t\271R@\341;\033iD@R@\374\025$\374P\200N@s\343G\244ATQ@\216\253\332\356\370KQ@\260d\240\256*\215Q@\241\367\220+\230gM@\351\300\307\262+\232Q@&=IC\030UQ@\321\351\235\322&LR@\362\257\344Q\234NP@V\342\336\261\361AR@}\313\276\335\034\262N@F\013\215\026llQ@|Ru\376\327\274R@\316\234\\\266*\001Q@\326\250\0146\310\233L@4\236\244G\277\026Q@(O0v3uR@:\264\203>\354\025Q@\250dr\347\263@R@\230\242\262 \025\rQ@\246\341\233zz\016Q@\354\373^\224\007DQ@\r\034\006\224*KP@H\303\314\025\326\352Q@\332\344p\213\336\037Q@0\005h&\306\375Q@$\362\362\370\036\323Q@\230\260}sl\253M@\357\024\003\366M\213S@JS\274\003\2174R@\247x\003j\357\030R@\212\206\312\022 \355Q@h\211\221\0030\305S@n\206>\037\227\335P@\342x\267\301_ZP@\361\250\007\223\010+S@\376\221\206\304\256uM@\250$<\023eWO@\r\327\354\206\222\260P@zH\350\265*\310P@\320\247X~\326\227Q@\350eYZ \263P@\214\373\261\356\321\'R@\254\000^\372\336\270P@#\257\323\324\263\'Q@\303\022\n\320#CP@\3203\271\373\210\346Q@.u\366\207\341\322Q@%Z\031X\245\303P@\021\022\255\337q\231Q@6\336$j\225\314Q@i\333`\274/\265Q@\2163\250\262\332\312Q@\343G\353x\205\263Q@\234\232\214+\236~P@\210]\364\276\312~P@{9\t)\373\357P@qa\354\250\301\236P@t?<*\223\236R@\203\233\261<\2030P@6Y(I\376\376M@B6\333\024\371HP@\243\005\210\336PSP@\330c\030\373@\362S@y\355\270\314P\262N@%\350\360\230\327pM@\224U%%\216\354R@\007TKap\356P@\365\237\211B\207\300R@\251Y\361\035v\001Q@]Z%\247\201\375R@}z\217\202~=Q@\261e\001\tz\265P@X5.-}\315P@\371\206^\311\362\304S@PICgZ@Q@\002\340\231\330\305|N@\026n>\365\005\334P@\322\304lC-\tP@\375D\333\231\313\313Q@,\241A\245Q\237P@.\277]\374\013\026Q@\300\2653\234\262\366Q@\240\256\203\263\031\024S@\256 \315?;\306R@\362\312\216\r3iQ@\343{\260s\214\323Q@\235\356\362dM\326Q@f.\222\233\020 N@\252\347H)\266\023P@_.\337\037\256\247P@Gy\364ZCCQ@\240\353\005\210z\246P@\274\271\314\016\373,S@\227T\233 P\004S@\363B\353\302\2503Q@\264~>\014\350/L@\264\257\207fd\320Q@\234G\0141\224\026P@\350*m\304D\272S@99\r\222\363$O@\362\372\266\376\000\325P@\2410\340\321X\234Q@\253\341\203\324w\363Q@\023\241\201\t\roQ@\007\000\204n\315\330P@\302\345\373\n\312QT@\243<Jd\347\375O@>8]\347L\036R@hR\325>\272\311R@\246\302\0305\0078Q@\332s<t\375\333N@7\344\323\363\274\235R@\266\350\314\002D\243N@R\030\327\350E\373P@\354\353\236wG\375Q@\037\230\277hU\340P@\360\203_\001;IQ@a\242\350\017\223vO@\375b\273\270\211\020Q@;\233\302\356p\022Q@\270 \031\304}\rQ@\241tI\276\303\374P@\020\267\371\256\032*Q@\3019\365\213\035\315Q@\037\031\242\177\322\"Q@\312Y!UR\374P@\371n\310\253j\244Q@\022\345k\332\241@O@\232)\320\177\233\254P@!\007~-`\326P@P\347Eb]AP@\360\374\211!1\322Q@\376\352sk\215AQ@9\021\370>\225!R@\277v\r\341k\214S@\375\235\"\320\373\276P@\350\313\026\3559aR@\364\3254\330T(U@pe\010\311\244pO@\024\374\376n\315\200Q@@\031\357=\336\256M@W\034\023s\"tP@(\235\225u]\200Q@\320\307\005od\274P@\021\025\265\261\nQR@w\016~\212\021\334R@\377\013\352Y0\300R@\254i\357L\324CR@\341ab\220\0002T@\254\365\013\n\307\357P@t\273\277\207]\354L@\217\253\013\025\360\333L@`\227\255y\243fR@\334\340\257n\210\010P@C\365W\274\000\036Q@\347\354P`\360bM@\370\253_\265\350\203P@5Rd\211BVN@\237T\327\230\006\035P@:P\300\362\362tQ@`\376x\237[\275O@7L\213\376S S@\023\216M\210\2360Q@G\255\351\262)/Q@\366\232\252\235\3454Q@F\317\321\207\235\370R@fU\333\313\372\013S@\333\322\233\nq\203S@N}yk(YU@\370\002.N\311\307Q@:\0271B\273\342P@*\326\311\013\353\017T@\336\036\037\273\372\314R@d!Y\217\304JS@ZL^\227\312\371O@\222\300\022\022\0234Q@y\223\207\033\363\346M@],\334X\255\246Q@g\200\244\243\225\253N@\224/z\255xSR@uk\327\270_\224Q@*\300\214\250c\336Q@\014\205\253\315\275\253R@\251\007~pVKR@\313P\204\256\177\326O@\317$g}\026\024Q@B\361n\347\tKQ@\277\261\256\n\300\336P@\010\021\263\337\2224S@F\207\231p\364\214R@\222\rw\235\343\332Q@\355x\313\006X\317P@\355\333\200+\217\315R@\366\0168\017^\264O@\237\240\237\336\021xR@\024!I\337mSQ@\377\332Jj-\030P@\362x\202z\203\014P@\352\242\033K\356\354N@\374\305\251\311\236\262R@\236\014\322\246\206\257R@D\320A\3701\356R@:h*_\3756Q@\250{v\034\333\226R@\315\'\2250\332\331Q@\007-\267=i\303T@a?\366\215\017\343O@\025V\353\262\363\233Q@\215\021\263\2674GP@\200\007\\\2319\311P@m\364\224\t\215`S@v\220\346\305\356>Q@\330\\\233XG\207R@\376\334\275B@\244P@\203\027\333\201!\367Q@y\336!<\226?S@\024\315\224ROcR@\231\307\261\n\267qQ@_,\341\034\022\002R@K\213\035\316\300\355Q@;\025d\303TKP@\245\321\344\260\367uP@\347\366\224\361\272\234R@\347u\301\277\256%Q@\223+\376[\030\302P@\275\300\252\372\336\261P@\354[C\257\331rQ@\222\364\310\342a\253R@\014\217)\256DFT@\207Q\356P\350\266Q@ \005|\r\266^R@:\304E\0206kQ@\013\200\211`\342\327Q@\330\207e\227^WO@|#\241\010\r^O@\236Y\235\230\260\240P@_`\256%(9Q@m\267\345L\362\246P@Z\357i\307]>R@\251,\232#%\373N@\311^X\206\276/Q@\3110\374\366a\356S@t\004i\201n>R@\361fB1\330\020S@\334\241Y\266>\343O@\301>\345\370\251JP@ \341Li\035DM@p\236\200\336\335\276P@V[V\351b\331M@\317\261\324\245n\nR@\203\305\327y\242\031R@\031\221]\002\275\374P@\357\007\213\274@nP@\024\204\212d\351\360P@\311\374\260,\361\233P@8\256\266o\347\233P@\341\355\322\374\033\321Q@\007zTx\252\342Q@\002\273\003h\211TT@6\304?\221+\332R@U\220Ex\2546Q@}q\240A!\010Q@*\006\364W\3140R@(\010\357\373-\277R@\350\274\251\345\243RO@\264\006\302J8gR@DT$\230\234\330P@N1\024\221*\355Q@\271\016<3l\375P@\025h\017I\363\016R@F\212\001\006\213\277O@\206\020NF\334\003S@7!\352\247\242=Q@\206\032\302\027\325\352Q@\272\304u\300\332\267Q@\356\213\244\271\001yR@^\373\300\372;\036O@\300#1#k\270R@\340\326\343\200\300\350R@\277\233\355-\223UP@xb\301\362\3515R@l.\2765\376iQ@\257m^7\342uS@q\214\020\353,\232R@#\233\337\300|\030S@H{\312\"F\201P@\036\256\3645\313\310T@&\3256\307waP@\334\340\032d\364\230O@\200\362s\267\201bR@y\365\230a#cQ@\360\377y(\262_P@\214\026\302\037u\367Q@\206\373\374\223\276^R@Rj\037\235\232IR@\004\362+\244_\304R@\021\377\010\031@)O@\022\344VGP=P@\031\325y\005f\270R@\305\266]\3111\226Q@\307]\216\327\017~P@\t2\367WI\201P@\036\'\226\351p\304Q@F ,\tGkS@\310\376>\363o\005S@H\024\2757\177\236Q@`\021!nH\277P@@W\277z\313\224Q@m\221\304(\211\007Q@\237\345\262\371FSQ@\350 \021\341\241\243P@\210gB4\355\272R@\367\3323\211\000\314Q@\025Z\214\032PcS@\362DG\200`\334Q@\204O\213K<\370R@\343\227\345\374\2044Q@\353\330g\265\377\357N@\276XM\006\271\351P@\224u\"\256n\303P@M\236\334\360\031\007T@\365H\260e\246vQ@\031\024\"N\214\313P@m\221\177Q\013\276R@i\233\020\376}\330P@\363\351[\034\226LQ@\n\352\014\275\326\266P@zc\266(\237\233R@u\325\326(\035\245Q@\365\323\333\242\250\251Q@2\252\262\001\032\236R@\265\207\346\301\254\211Q@P\352\321\315\311\302O@\200I\314l\264jS@K\000\224\201)\325R@\360J\343^*.R@\216pX*\3758Q@\212\352\370q\254jP@{\207\326J\222\004P@\341\301\t\236\177\334Q@\007\212j\347\024\302Q@\301k\334\266fiP@TZ\017\236\341ZQ@\317P`Q\373HQ@\0039\267V\023XP@\264 \272\205\263IR@\301b:\261\022<R@\334Du5#\000R@\017\352-%\003\316R@ \363\203X:\211R@$v?\222v\213Q@\\\003\037L\r\337Q@\2252\t$\240QQ@\306:G!#\214P@\317\377J\347\237\003R@\347\222^=\362\nS@/Z\321\211\370\361P@\206a\323\345\274\322M@\304h!z\206\334Q@H\004\254m\223\262P@\355x\363\"\222gR@\277\310[\030\2447O@\033\206\337t\207\312Q@Y;\231\364\314nQ@\342\241\2001\363\335O@\1773n\235\272\\P@]7\365HsxQ@8h\237?\230\260P@A\351\240\267\305,Q@\n\275\326\023_\354Q@2N\3276A\nR@O\204\277\326U$Q@\273\324\323\274]\233Q@\215f3\257\360VR@\326\031\353\333Q\nS@\020\022\223s\273\372R@\201\305\036\245\234\340S@\320\306P\2240\020R@\350\256\307\037\331\347R@z]\315\025r\352O@_ \340=\3521P@\005Yp\241w\212P@L\305\215X\032\207Q@U\256u\255\005\326Q@\021\362\322\0072|P@I[\005\225\321\216P@\316\007&t\347%R@\302`YI-\274R@(\252\001w\237\357Q@\216\005\3100F\351R@\366\337P\277-\276R@\252P\371\"\357JP@\341^\305\331\333\027R@\325\332\325K?\002R@%=\'\006\201\273P@\212\300uKi*Q@Crt\242\020\352Q@~\234F3\325\240Q@U\272\363\376\241\010Q@\365F\365\317>gQ@p\001>V\332\321O@o#\362\275h2Q@*\255\271m\205&P@\326\321\306S\3675S@\020!\230c\205uR@\026l\373\346\303\236P@\346\270\n,\004\257P@\330\313\222\245\252lQ@\373\273\265\202\341\220Q@\272y\030\357V\303R@y\374\240\327h|Q@\257N\005-\316\310R@\203\2356\2543\346R@\227[\227\241XBR@\260m\357(\350.R@_(<#\315\261P@,\314\t\024\233\334P@\200]0h\317\322Q@\017\257\276\014j\247O@\360\343o\363\317\237R@I\336\231\333\233\270P@\322\343\351\226<\273R@\224\271%\337\035\"R@\005\253-n\242{Q@\254\217\306/E\026R@>\330\260\300\364\255Q@\234+\005C]@Q@\031\020\035(\tJP@\343Q\217YP-P@\323\257df\036\333N@\247\236rp\007\036P@\253\267\210\262\212\255T@z\217\323d\236\227R@n\344\354SP\334R@\360x\337\220\356\204S@_f\032+E\222N@\241\271eq\260\334N@F\257\241\"N\313R@\031g\330f\350!S@D\224\216\344EiR@\016\311\346\010\311\330P@\200\1773\332\232\330Q@\223\342\265\335\024OQ@@\343@\306\201\373Q@J\361\320\340\370\250Q@\327N\030aIAQ@rt\271N\222\241R@\2073A\000\327\277P@L\013\031J:vQ@\032\266j\324R\326Q@{1w\24668P@\177M\277qA\023S@\221\362\261\340h\347P@\345\365\306\347\214\327R@=\332\260\314]\325P@\254\324\\ZpHQ@t>\377v#1R@\316\031\222i\024~R@\304M\204j\316jQ@\254\3542\034\024?Q@\362\260u\261B\314L@k\351\237\251S\236Q@\3336\377\304\2730Q@\230\326\376\277\234\010Q@\036\344\022\350D\256O@\321E,\274\343\tS@\210l8\na~P@\320E*\374B|Q@\032\010:\364\214\337Q@\257e\242\"\374\212Q@\217,R\315\244\312Q@b\323\273e<\233Q@\204\223\036(R\324R@(\307\323\242\265\273Q@\205E\231\215(\267R@\342\215h\032\262oP@\362\304\253N\223\021R@\302f\364\325\014\355S@\016\356?^\035\327O@\211\366hb\332\263Q@%mg\276\345\177P@^V\352\022\251cQ@\242\217;=\355\212O@ v\201q\350\216R@\331\371\034\364\352\201Q@\2558\365\215=?Q@X?\216\244\004UP@\271\027G%\205\316R@\025\222\363\206\355rR@C\305 ~D\312Q@\261\023:\210:\310Q@\302\014\274\254\"\253P@Tv\326\240&\202S@\255\274o\330\342\006Q@G\242\036H\263dR@\364U\002N\034!P@zc\203\346@\230O@\211\252\313\326\021\242Q@\207\3758\364\207\243P@\032/\214\365b@Q@k\353]\2043\214Q@7\240\330\t\213\232Q@\2359H\266\362(P@\255\347\360\351-UR@}\231\212\001\337\013O@\014f\013\3401;Q@\235\212\256\307\300MQ@\005\263\222\244\034KS@?\000\366u\367ZP@Fu\371t\205\307P@|h\003\241\203\301P@<\304vSGER@\235\355\264\r\224dR@\261\270\333bs\222R@\350\273\t]\350\007Q@\256D7>\230\210R@4\321\210?\032bP@2\255\236\234\254\252R@y\235\376I\234cR@\337\337\'-\252\017R@\301\320\261\270\177ER@d\024a\031\331\313P@<\234\342\360\253IR@\356\322\030\374\375\036P@\261\307V2\336\005S@\344/G\323\204IS@\275\r%\3175fQ@\340y\333\357\275\326Q@\2721q\300,5Q@\376\302;\026R\233S@\270\235mt\324%Q@\000\367M_<\010Q@\315y\263\033Q\315Q@?\355\246\253k\'S@\320\037Hn\363+Q@\205!\t6\362\000Q@\336G\214\234\036\263O@\376\032\315\304\2519S@\315pu\tWGP@2\306\227\266#\304S@-\033&\021\350\201S@\333\313\277\007\3501S@\240\246o\233eMP@\314h\237\324\001,N@\320S\027\356\235\031Q@3H\315\3567XO@Z-@\302UOQ@EIa@\305QS@Q\314\327p\257\353R@<\374\322\232\224\260R@\006\350\251K4\222P@\\\363\234%\355<N@\306@Z\262\354\034Q@\025\243\245Ro\316R@Q\240\316?\276\315Q@\244\356.\305\335\037R@\305%J\353\330\336R@\273s\253\t`FT@\037\2060\361?\002Q@|\330?@:\022R@CI\235\033T|R@\256\311\001\271=\302R@\r\315\261\177e\354Q@\266>}%\2645Q@\227\344\361\235\233!R@%\270r\224\257\363O@\236\255\372\360<xS@\200\301p\0176\363R@\330W\353P\213\263M@\207\355q\210\276]Q@\tzI<\250\003R@\007\322TO\356\034P@\242\250\217\373\342=R@q/\336}\244\nS@\026\262\322-\034\207P@q\247\274\332\251/P@oz\2621\310\"Q@\2311\330\253\256\316O@\250q\014\213RxP@1E\201\027\361\272P@t\030Z$\023\225S@\362\367\274M\316LS@\003t\317y\001\033Q@\203\203L\306MFP@,\366\267\tc\334K@\202\355\211K\346FP@\004X\013\177L\210O@\264\312x\2353\010S@\203/\006\350\363*R@l\262\316\002Q\177P@\236<m\220\226,Q@[B\320<\022)P@|\327\356[W\016P@\001F\306\361\270)Q@\321\315\312L\204\033Q@\305%%\317\312\320Q@\340)C~\274\330N@\031*4\226\360\203S@K\331\311+\3245Q@b\330E\033\205\363P@\260\027i\216j\017S@qa\',\337\'Q@\246;\017\255\200\251Q@\377\337)\2478\357P@\214r\220\032\362\"R@\324\270\366!\266.R@\255i\252j\236\242M@\013\353\032\244U\nT@\311\367\016\037\023\244R@}\014\242EC\014R@<\244\336\271,LR@\021S;\224YmP@\211\200j\341\245\205O@\231\374\212\264\022fP@?h \341\t:P@@\025\260l\275(R@1\"\211\007=\234P@\002\036\264\025\243\226O@1,\314\200\026\313Q@e\206\214\321o\271P@\216\252\332\"\225\356S@m;^\332cRP@\2468{\356:\233S@N\017~\232X\351N@\177\003.\252\004\226P@\252P\263P\301\276T@\007\205\022\310\002KR@\207\374\200h\214XQ@+\312j-KOQ@\342\274\264\261\005\252O@\343O\242g\334\237Q@\332\210\316\315\337TS@\266\036\352Sj\202R@\361\317\035%\277rR@\315\254W~\276GN@\002]\020I-2N@\356g\004$\255\237R@\312\351,\327\177\252R@\226tL\201\237\262P@\307t\177GW\217Q@U\221\225!\231\271L@$\005\236\2414\025R@\305C\255\207\357\245R@\346\373\235Y\004\"Q@U\020\317\265V\006S@$\363\276\320\334zR@u\265)`\n\014P@\207K\\\2254\325R@Va\356\032 \326Q@\214`^ki6P@1\013\312\364\335\276R@\313\0313\226\370sR@E\031\332`k\017R@=(y}\324)R@\226\212\"e(\021Q@\3134n\360\335)P@\302i(KweP@\n\273\253\252\034\323S@\r\342\205\n\0042P@\242\243\257\375\276\353P@0\017\215\251\260\004Q@`\255)1ahR@Z \364g\266\nR@\307\317{\334\331nO@f\n\202vw\357P@j\365\247]\210lQ@\024\\\251\204\201FQ@\324(\305\244\313\355R@\204\312\327J\307\363P@_,oy\2769Q@\246\302\226\377B2P@^3\240\207\330\nS@\036-\203\265\220\373R@Uf&\330\033\321R@@\261*\322\260\345Q@\222tFw\360\021S@\204\016&\024\\\236R@\341\343d\327\\\216N@\013\\\236\222\301cQ@\272p\037\233\236\207R@j\022\254\232\305\353L@-\227@\341\227\325R@\235\007\343\360}\220R@B\376X|\225\035T@\242\363\260,\010ZR@\037\274\2736\232MR@\225\226\243\205\203:O@\216\241p\343\334QQ@T\272\232\234\233\336O@\371\353\000\246a\370P@\250N&\t\235\311Q@Z\311\250\001\030\024R@:\332\261l\255\'P@\310\035\031DA\342P@\377\373\233\003\277&Q@\330\3063\202\020\353O@\313\335\377;\340\213O@\337!\020\016:hQ@\030U\375J\324\247L@\332\016\370wL\306R@.l\243~\364\013Q@i\362<\336\237\303R@\370h\240:\263\253S@\005\350)b-\212R@\215\246\253\207\017\037S@\032\014\'\020\275bQ@*\025\301\r\"\204P@\332p\004.p\215Q@\247h\214\300U8Q@B\323\377\240(\210O@b\323\331\027I\237P@\034\320\203\301\344!P@\231\006\345\356\270\020R@\214\213\313\001j(R@g\367\351\225.\206Q@\234\307\337X\031>O@kS]\201\376CS@\017\276\276q\225AQ@\270\3576[\225\324O@\361,kP\322\321Q@\262u\201\350\247\256O@\3614`1#\243P@^\035\013O\321\022Q@&\033\276\222&\271R@\313\300\3602\302\226R@\351\325\323\260\205\374P@z\014\222~\311\021R@g\330\250\261\255bR@\373\312W\220\303\300Q@^\306\244\177\337\255M@\220L\272Q9\346P@\302\t\244\031.\233O@M\255\241\203\315\357R@\014\366\321s\2538R@\274\016\025)@\207O@\223\206\344\266\251\rP@\0375\236\'\241KP@\312 Sq\327)R@\300C\211\301\376\021R@\243w:\345\304\231O@ \273\332\361\0141R@4\013\014\357o\177R@1\\\000\270\033\231Q@\177_O\344\331\231R@\352^\031\367\214\034Q@\2237\004._\357Q@U\0144\341\224\255P@\364\243\360(\201\026T@z\003\222\206a3P@\256\223?\335\216\327Q@\313\347\\G\277\337P@Q\032\345\037\321}P@vb\264\352\302\031R@\303\305\035\370j\376Q@R\330\021\217\250\351R@q$\035\263\315\370P@\216\341vU!\241P@\347\006\023\266\256\274Q@U\211\344\365\272\177P@K\320I\353]\271P@<\344\010\3026SP@\221*)2\014cP@\201\353\252\375\301\004Q@\227\364!jG\372Q@\025\3218Ao\226Q@\303u\021\212\212XQ@*`\377\213\034\016R@b q\226\274AQ@-\010\274\374\200\332Q@\177,d~\030\377Q@5\004Be5IR@\337\300@xG\207Q@x\021\343\337\033\305S@\333M\302u\017UQ@\006\020\004\200\250\243R@\365P+1\005\320P@\350\017\024I\254\001R@\252\0160\014E\346P@\\\320\274\326\365\350R@\005\032\351K\307\246R@\336/m\371Z\277R@\026\3208= \227R@Q\334\330\351h\037Q@\035\'\341\036\343\006Q@\'\265\360\024\211$R@\007\020U\257\272\307P@cqV\221\246lS@Mo\327\002\'\025Q@\260A\251\242KQR@\365\345\3139\021bP@\200\254\250H7fQ@\202**\355\215\032N@\210\225\204\005I\371R@\'\030\\\370\376\274P@|\356M\263\205\272R@\206o\326\263\243@R@\333\377\262i\255uR@\031!\326\253\277#R@A\342\214;\033\031Q@\027\026\003u\334PP@P\006\264\312\227iP@\204|\303\256\225\230R@\206y{\350\362\032R@\232\354o\253y)Q@TT)\353z\004Q@\222Z\364\326\371\207Q@\345]\242\241\373IQ@QKl?\345\371Q@h+\213\021\362wP@\334\354z\266\000\035S@\017F\302\346\260\202P@O4K\326\255IT@v\264\350t\277\371P@`\276G\006\322\324P@\022\225F\227\201\210R@\203\345\263h\315\341Q@\212\032\336b\253\204Q@.\023\360q\240\354Q@:\225\357\320\317\332R@\375\031?\001\357hQ@\235\037G\361]YP@\212\330\0210gCQ@wo%\3572\320Q@\037\350\244\250\340{S@\327\213\362\t\305\324P@A\n\215\235\255SP@\373\203\355\257\201*Q@\327^\206\325*\\O@\366t\223\226\254\310Q@}\210\361\256\261\342Q@p@\2779.\340Q@\254\366\341Bo\027P@f`\247;\323 Q@*\271\177\0048\253Q@T\365\316\336\235\220O@\302\037\n\340\376^R@:\324\307\365r)Q@?H\201k\013KS@\025]\243\305\310\004R@d\357\005\205\215\202R@\354*\036\360B\244R@%\226^\017\345\003R@\003`\"\323y\270Q@pw\326;\273\372P@\301\263\277P\027\263P@\252\274\363Q\2510S@\301\'\361ad6R@\205s,\355\271\014R@\336!\315\226\000\036S@*\356\276\355_\'Q@b\274~\361\365hQ@\363\340\347\376\032\354Q@1\327\370\254\314\207Q@\177\3310\002\\SP@X\237\311-\344[P@\247\3505Y\350\313P@\361\326\335$\340^Q@w\270\024E\206\273Q@nmL\206\374\336R@\016\343\024\\\366/P@=!/\263\376\203R@\226\267\334&J\302P@\336\246\270\355dIR@\241K)\007\261\212S@\377=\226\023\202)P@\352T\205\346\336RP@B\027L\314vhQ@\006p\346\200U\377P@\362\322X\204\311NO@\034\313tox\037Q@<t\276\246\307\265S@\240o\211j6\314Q@\035\246\235\262\366SP@\346e\236/\314\267Q@\347Y\014\227G\231Q@\265O\014\357\256mQ@P\032/\242\260\205P@\210\365\355\316\206WO@\013\"\306\213\337\010Q@E\240\232\235\235gQ@}\266M\236J\254R@\325\\\324\346#)S@\203\037\241z\307\016O@\371\342eW\277\031R@mK\224C\177\211Q@\320A\251\320x\365R@`]`\303\355\263N@ \314\021\007\255EQ@/(D\216BRS@_\231]6Z\034O@:\316\371:i\213S@)\365\305\027\001\273Q@\364C\035\236\213;N@\017\213\342\243\353-O@\234\226^>\314\207R@\342\375\354@\365mP@\377\264\344\206\272=R@\350csu\234\037P@\277\211\361\224J\312Q@~\350\237\321\002\370P@8n\362%\200>R@#L<\34155Q@K|\254\253o:P@\344ki\351\322uR@\n\234\312\346\227\013N@\237.\235\035\246CQ@\017\003\203\027\351\\Q@&\333\315\204H\001R@\306{\240=%\035T@v\230a+\324)O@\252\267\343U\033\'P@\266\361\013\253W\300P@\357\201 \363K\'Q@H\014)\035\207\004R@\216\261\224{<%L@\1772\200l{\024R@\240\337\216\222\336WR@\205\313\257\374\'\370P@\343\231\366]zXP@\016\305\200\375\372\010R@\273\232\226\210\206)S@\177&{VR\267R@\220\244\201o\017\200Q@\177\343\340\341\343\266P@\361\312,\271}\327P@l\351m\210N\260S@H\227\355\252\000IQ@e\036\373\365ZBQ@HGr\231\027pP@p\364\"\013\277\207P@|\235\232\013(XQ@az32wZS@\301\274\267|\244\345S@\216\2279;\377\365R@\305\226c\374\215uQ@QWeJ\264iP@\244*\232};\313Q@FM\303<f\263Q@\210[^\032\034\375R@\343g\227\035\310&R@<\345\275\371\214\317Q@Q\025q\203\302\030Q@\017\255?a\302\311R@\222\326\242\317\214\210O@cR \211~uR@\276v{.C.R@\324\347f\231\352\213R@f\177-\342GnQ@E\264\226\334*hQ@\377?=$\234\202P@\331\301(aK\036Q@\204A\3079#\004R@\004\375N5\340\303R@Kh\207\025s^P@\344\3525:\375WQ@m\005==\243\'T@\320S\005V?\353N@2\t\252\227x%Q@\016\350u\306\347\037R@\272i\274\215\327\241Q@\t\246\236r\206\020R@/\312r>X\242Q@\341\034z\030s\245M@\024\262\313\235\246\217Q@\370\202\324\246\351dQ@\006\364\017\001\356\027Q@-\217\304\017\374\273P@\371\rS\202\347dP@\037\n[\333\273DQ@k\242Y\351X\230Q@I\210\307\271\021\304Q@\212\322\205M\3543S@\305\021\273\371G/R@\007z\237\322](R@\347\324\321\016\"\214P@q\310\224\224\345kQ@\021]{Q\344\260P@Hg\257\263x\236O@\215\r\016\340\006\221N@\214\030\350=\356\\N@\233\273\215\2016\333S@\266i4\311\336\316P@e\337s\226\325\010Q@\270\366{\212\313\026S@\261\317\'\311\224\217Q@\322\221)\222v4P@tcvl\003\"R@\372\363\013\035\3700R@\26115\036\\\355Q@\374~c{u}P@\272\322>\266\314\026S@E\234)\273\215jQ@P[l\217%\332P@\335\214M\3667aS@\006\303o+\337\253Q@H\370\346\247\243\265P@yI\206r\2129Q@\200Dm\'\377\353R@\007\242\344=\311rR@\244}\332f.eR@,\325w\221q\032R@\325\302\016n\200\262R@\374r\036\213\341\250Q@S\360R{0%Q@\333\240\002`[#P@\322\352,